{
  "version": "1.0",
  "truncation": null,
  "padding": null,
  "added_tokens": [
    {
      "id": 0,
      "content": "[UNK]",
      "single_word": false,
      "lstrip": false,
      "rstrip": false,
      "normalized": false,
      "special": true
    },
    {
      "id": 1,
      "content": "[PAD]",
      "single_word": false,
      "lstrip": false,
      "rstrip": false,
      "normalized": false,
      "special": true
    },
    {
      "id": 2,
      "content": "[BOS]",
      "single_word": false,
      "lstrip": false,
      "rstrip": false,
      "normalized": false,
      "special": true
    },
    {
      "id": 3,
      "content": "[EOS]",
      "single_word": false,
      "lstrip": false,
      "rstrip": false,
      "normalized": false,
      "special": true
    }
  ],
  "normalizer": null,
  "pre_tokenizer": {
    "type": "Whitespace"
  },
  "post_processor": null,
  "decoder": null,
  "model": {
    "type": "BPE",
    "dropout": null,
    "unk_token": "[UNK]",
    "continuing_subword_prefix": null,
    "end_of_word_suffix": null,
    "fuse_unk": false,
    "byte_fallback": false,
    "ignore_merges": false,
    "vocab": {
      "[UNK]": 0,
      "[PAD]": 1,
      "[BOS]": 2,
      "[EOS]": 3,
      "\u0000": 4,
      "\u0001": 5,
      "\u0002": 6,
      "\u0003": 7,
      "\u0004": 8,
      "\u0005": 9,
      "\u0006": 10,
      "\u0007": 11,
      "\b": 12,
      "\u000f": 13,
      "\u0010": 14,
      "\u0011": 15,
      "\u0012": 16,
      "\u0015": 17,
      "\u0018": 18,
      "\u001a": 19,
      "\u001b": 20,
      "!": 21,
      "\"": 22,
      "#": 23,
      "$": 24,
      "%": 25,
      "&": 26,
      "'": 27,
      "(": 28,
      ")": 29,
      "*": 30,
      "+": 31,
      ",": 32,
      "-": 33,
      ".": 34,
      "/": 35,
      "0": 36,
      "1": 37,
      "2": 38,
      "3": 39,
      "4": 40,
      "5": 41,
      "6": 42,
      "7": 43,
      "8": 44,
      "9": 45,
      ":": 46,
      ";": 47,
      "<": 48,
      "=": 49,
      ">": 50,
      "?": 51,
      "@": 52,
      "A": 53,
      "B": 54,
      "C": 55,
      "D": 56,
      "E": 57,
      "F": 58,
      "G": 59,
      "H": 60,
      "I": 61,
      "J": 62,
      "K": 63,
      "L": 64,
      "M": 65,
      "N": 66,
      "O": 67,
      "P": 68,
      "Q": 69,
      "R": 70,
      "S": 71,
      "T": 72,
      "U": 73,
      "V": 74,
      "W": 75,
      "X": 76,
      "Y": 77,
      "Z": 78,
      "[": 79,
      "\\": 80,
      "]": 81,
      "^": 82,
      "_": 83,
      "`": 84,
      "a": 85,
      "b": 86,
      "c": 87,
      "d": 88,
      "e": 89,
      "f": 90,
      "g": 91,
      "h": 92,
      "i": 93,
      "j": 94,
      "k": 95,
      "l": 96,
      "m": 97,
      "n": 98,
      "o": 99,
      "p": 100,
      "q": 101,
      "r": 102,
      "s": 103,
      "t": 104,
      "u": 105,
      "v": 106,
      "w": 107,
      "x": 108,
      "y": 109,
      "z": 110,
      "{": 111,
      "|": 112,
      "}": 113,
      "~": 114,
      "": 115,
      "": 116,
      "": 117,
      "": 118,
      "": 119,
      "": 120,
      "": 121,
      "": 122,
      "": 123,
      "": 124,
      "": 125,
      "": 126,
      "": 127,
      "": 128,
      "": 129,
      "": 130,
      "": 131,
      "": 132,
      "": 133,
      "": 134,
      "": 135,
      "": 136,
      "": 137,
      "": 138,
      "": 139,
      "": 140,
      "": 141,
      "": 142,
      "": 143,
      "": 144,
      "": 145,
      "": 146,
      "¡": 147,
      "¢": 148,
      "£": 149,
      "¤": 150,
      "¥": 151,
      "¦": 152,
      "§": 153,
      "¨": 154,
      "©": 155,
      "ª": 156,
      "«": 157,
      "¬": 158,
      "­": 159,
      "®": 160,
      "¯": 161,
      "°": 162,
      "±": 163,
      "²": 164,
      "³": 165,
      "´": 166,
      "µ": 167,
      "¶": 168,
      "·": 169,
      "¸": 170,
      "¹": 171,
      "º": 172,
      "»": 173,
      "¼": 174,
      "½": 175,
      "¾": 176,
      "¿": 177,
      "À": 178,
      "Á": 179,
      "Â": 180,
      "Ã": 181,
      "Ä": 182,
      "Å": 183,
      "Æ": 184,
      "Ç": 185,
      "È": 186,
      "É": 187,
      "Ê": 188,
      "Ë": 189,
      "Ì": 190,
      "Í": 191,
      "Î": 192,
      "Ï": 193,
      "Ð": 194,
      "Ñ": 195,
      "Ò": 196,
      "Ó": 197,
      "Ô": 198,
      "Õ": 199,
      "Ö": 200,
      "×": 201,
      "Ø": 202,
      "Ù": 203,
      "Ú": 204,
      "Û": 205,
      "Ü": 206,
      "Ý": 207,
      "Þ": 208,
      "ß": 209,
      "à": 210,
      "á": 211,
      "â": 212,
      "ã": 213,
      "ä": 214,
      "å": 215,
      "æ": 216,
      "ç": 217,
      "è": 218,
      "é": 219,
      "ê": 220,
      "ë": 221,
      "ì": 222,
      "í": 223,
      "î": 224,
      "ï": 225,
      "ð": 226,
      "ñ": 227,
      "ò": 228,
      "ó": 229,
      "ô": 230,
      "õ": 231,
      "ö": 232,
      "÷": 233,
      "ø": 234,
      "ù": 235,
      "ú": 236,
      "û": 237,
      "ü": 238,
      "ý": 239,
      "þ": 240,
      "ÿ": 241,
      "Ā": 242,
      "ā": 243,
      "Ă": 244,
      "ă": 245,
      "Ą": 246,
      "ą": 247,
      "Ć": 248,
      "ć": 249,
      "ĉ": 250,
      "Ċ": 251,
      "ċ": 252,
      "Č": 253,
      "č": 254,
      "Ď": 255,
      "ď": 256,
      "Đ": 257,
      "đ": 258,
      "Ē": 259,
      "ē": 260,
      "ĕ": 261,
      "Ė": 262,
      "ė": 263,
      "Ę": 264,
      "ę": 265,
      "Ě": 266,
      "ě": 267,
      "Ĝ": 268,
      "ĝ": 269,
      "Ğ": 270,
      "ğ": 271,
      "Ġ": 272,
      "ġ": 273,
      "ģ": 274,
      "Ĥ": 275,
      "ĥ": 276,
      "Ħ": 277,
      "ħ": 278,
      "Ĩ": 279,
      "ĩ": 280,
      "Ī": 281,
      "ī": 282,
      "Ĭ": 283,
      "ĭ": 284,
      "į": 285,
      "İ": 286,
      "ı": 287,
      "ĵ": 288,
      "ķ": 289,
      "ĸ": 290,
      "Ĺ": 291,
      "ĺ": 292,
      "ļ": 293,
      "Ľ": 294,
      "ľ": 295,
      "Ł": 296,
      "ł": 297,
      "Ń": 298,
      "ń": 299,
      "ņ": 300,
      "Ň": 301,
      "ň": 302,
      "Ŋ": 303,
      "ŋ": 304,
      "Ō": 305,
      "ō": 306,
      "Ŏ": 307,
      "ŏ": 308,
      "Ő": 309,
      "ő": 310,
      "Œ": 311,
      "œ": 312,
      "Ŕ": 313,
      "ŕ": 314,
      "Ř": 315,
      "ř": 316,
      "Ś": 317,
      "ś": 318,
      "Ş": 319,
      "ş": 320,
      "Š": 321,
      "š": 322,
      "Ţ": 323,
      "ţ": 324,
      "Ť": 325,
      "ť": 326,
      "Ŧ": 327,
      "ũ": 328,
      "Ū": 329,
      "ū": 330,
      "ŭ": 331,
      "ů": 332,
      "ű": 333,
      "Ų": 334,
      "ų": 335,
      "ŵ": 336,
      "ŷ": 337,
      "Ÿ": 338,
      "Ź": 339,
      "ź": 340,
      "Ż": 341,
      "ż": 342,
      "Ž": 343,
      "ž": 344,
      "ſ": 345,
      "ƃ": 346,
      "Ƅ": 347,
      "Ɔ": 348,
      "ƈ": 349,
      "Ǝ": 350,
      "Ə": 351,
      "Ɛ": 352,
      "Ƒ": 353,
      "ƒ": 354,
      "Ɣ": 355,
      "Ɩ": 356,
      "ƙ": 357,
      "ƛ": 358,
      "ƞ": 359,
      "Ɵ": 360,
      "Ơ": 361,
      "ơ": 362,
      "ƨ": 363,
      "Ƭ": 364,
      "Ư": 365,
      "ư": 366,
      "ƴ": 367,
      "ƿ": 368,
      "ǀ": 369,
      "ǁ": 370,
      "ǂ": 371,
      "ǃ": 372,
      "ǎ": 373,
      "ǐ": 374,
      "Ǒ": 375,
      "ǒ": 376,
      "ǔ": 377,
      "ǚ": 378,
      "ǜ": 379,
      "ǝ": 380,
      "ǣ": 381,
      "Ǧ": 382,
      "ǧ": 383,
      "ǩ": 384,
      "ǫ": 385,
      "ǰ": 386,
      "ǵ": 387,
      "Ƿ": 388,
      "ǹ": 389,
      "Ǽ": 390,
      "Ȁ": 391,
      "ȁ": 392,
      "ȃ": 393,
      "ȇ": 394,
      "ȉ": 395,
      "ȗ": 396,
      "Ș": 397,
      "ș": 398,
      "Ț": 399,
      "ț": 400,
      "Ȝ": 401,
      "ȝ": 402,
      "ȟ": 403,
      "Ƞ": 404,
      "Ȣ": 405,
      "Ȳ": 406,
      "ȳ": 407,
      "ȶ": 408,
      "Ƚ": 409,
      "Ⱦ": 410,
      "Ɂ": 411,
      "ɐ": 412,
      "ɑ": 413,
      "ɒ": 414,
      "ɔ": 415,
      "ɕ": 416,
      "ɖ": 417,
      "ɘ": 418,
      "ə": 419,
      "ɚ": 420,
      "ɛ": 421,
      "ɜ": 422,
      "ɝ": 423,
      "ɟ": 424,
      "ɡ": 425,
      "ɢ": 426,
      "ɣ": 427,
      "ɥ": 428,
      "ɦ": 429,
      "ɧ": 430,
      "ɨ": 431,
      "ɩ": 432,
      "ɪ": 433,
      "ɫ": 434,
      "ɬ": 435,
      "ɭ": 436,
      "ɯ": 437,
      "ɱ": 438,
      "ɲ": 439,
      "ɳ": 440,
      "ɴ": 441,
      "ɵ": 442,
      "ɸ": 443,
      "ɹ": 444,
      "ɻ": 445,
      "ɽ": 446,
      "ɾ": 447,
      "ɿ": 448,
      "ʀ": 449,
      "ʁ": 450,
      "ʂ": 451,
      "ʃ": 452,
      "ʅ": 453,
      "ʆ": 454,
      "ʇ": 455,
      "ʈ": 456,
      "ʉ": 457,
      "ʊ": 458,
      "ʋ": 459,
      "ʌ": 460,
      "ʎ": 461,
      "ʏ": 462,
      "ʐ": 463,
      "ʑ": 464,
      "ʒ": 465,
      "ʔ": 466,
      "ʕ": 467,
      "ʘ": 468,
      "ʙ": 469,
      "ʜ": 470,
      "ʝ": 471,
      "ʞ": 472,
      "ʟ": 473,
      "ʠ": 474,
      "ʤ": 475,
      "ʰ": 476,
      "ʱ": 477,
      "ʲ": 478,
      "ʳ": 479,
      "ʷ": 480,
      "ʹ": 481,
      "ʺ": 482,
      "ʻ": 483,
      "ʼ": 484,
      "ʽ": 485,
      "ʾ": 486,
      "ʿ": 487,
      "ˁ": 488,
      "˂": 489,
      "˃": 490,
      "ˆ": 491,
      "ˇ": 492,
      "ˈ": 493,
      "ˉ": 494,
      "ˊ": 495,
      "ˋ": 496,
      "ˌ": 497,
      "ː": 498,
      "ˑ": 499,
      "˒": 500,
      "˖": 501,
      "˗": 502,
      "˘": 503,
      "˙": 504,
      "˚": 505,
      "˛": 506,
      "˜": 507,
      "˝": 508,
      "ˢ": 509,
      "ˮ": 510,
      "˲": 511,
      "˴": 512,
      "˸": 513,
      "˹": 514,
      "˺": 515,
      "̀": 516,
      "́": 517,
      "̂": 518,
      "̃": 519,
      "̄": 520,
      "̅": 521,
      "̆": 522,
      "̇": 523,
      "̈": 524,
      "̊": 525,
      "̋": 526,
      "̌": 527,
      "̍": 528,
      "̏": 529,
      "̐": 530,
      "̒": 531,
      "̓": 532,
      "̔": 533,
      "̕": 534,
      "̖": 535,
      "̚": 536,
      "̛": 537,
      "̞": 538,
      "̠": 539,
      "̡": 540,
      "̢": 541,
      "̣": 542,
      "̤": 543,
      "̥": 544,
      "̧": 545,
      "̨": 546,
      "̩": 547,
      "̪": 548,
      "̬": 549,
      "̭": 550,
      "̯": 551,
      "̰": 552,
      "̱": 553,
      "̲": 554,
      "̳": 555,
      "̴": 556,
      "̵": 557,
      "̶": 558,
      "̷": 559,
      "̸": 560,
      "̺": 561,
      "̿": 562,
      "͉": 563,
      "͡": 564,
      "ͣ": 565,
      "ͥ": 566,
      "ͦ": 567,
      "ͧ": 568,
      "ͫ": 569,
      "΄": 570,
      "Ά": 571,
      "Έ": 572,
      "Ή": 573,
      "Ί": 574,
      "Ό": 575,
      "ΐ": 576,
      "Α": 577,
      "Β": 578,
      "Γ": 579,
      "Δ": 580,
      "Ε": 581,
      "Ζ": 582,
      "Η": 583,
      "Θ": 584,
      "Ι": 585,
      "Κ": 586,
      "Λ": 587,
      "Μ": 588,
      "Ν": 589,
      "Ξ": 590,
      "Ο": 591,
      "Π": 592,
      "Ρ": 593,
      "Σ": 594,
      "Τ": 595,
      "Υ": 596,
      "Φ": 597,
      "Χ": 598,
      "Ψ": 599,
      "Ω": 600,
      "ά": 601,
      "έ": 602,
      "ή": 603,
      "ί": 604,
      "ΰ": 605,
      "α": 606,
      "β": 607,
      "γ": 608,
      "δ": 609,
      "ε": 610,
      "ζ": 611,
      "η": 612,
      "θ": 613,
      "ι": 614,
      "κ": 615,
      "λ": 616,
      "μ": 617,
      "ν": 618,
      "ξ": 619,
      "ο": 620,
      "π": 621,
      "ρ": 622,
      "ς": 623,
      "σ": 624,
      "τ": 625,
      "υ": 626,
      "φ": 627,
      "χ": 628,
      "ψ": 629,
      "ω": 630,
      "ϊ": 631,
      "ϋ": 632,
      "ό": 633,
      "ύ": 634,
      "ώ": 635,
      "ϐ": 636,
      "ϑ": 637,
      "ϒ": 638,
      "ϕ": 639,
      "Ϙ": 640,
      "Ϡ": 641,
      "ϧ": 642,
      "ϩ": 643,
      "Ϫ": 644,
      "ϫ": 645,
      "ϭ": 646,
      "Ϯ": 647,
      "ϰ": 648,
      "ϱ": 649,
      "ϳ": 650,
      "ϵ": 651,
      "Ϸ": 652,
      "Ͻ": 653,
      "Ѐ": 654,
      "Ё": 655,
      "Ђ": 656,
      "Ѓ": 657,
      "Є": 658,
      "Ѕ": 659,
      "І": 660,
      "Ї": 661,
      "Ј": 662,
      "Њ": 663,
      "Ў": 664,
      "А": 665,
      "Б": 666,
      "В": 667,
      "Г": 668,
      "Д": 669,
      "Е": 670,
      "Ж": 671,
      "З": 672,
      "И": 673,
      "Й": 674,
      "К": 675,
      "Л": 676,
      "М": 677,
      "Н": 678,
      "О": 679,
      "П": 680,
      "Р": 681,
      "С": 682,
      "Т": 683,
      "У": 684,
      "Ф": 685,
      "Х": 686,
      "Ц": 687,
      "Ч": 688,
      "Ш": 689,
      "Щ": 690,
      "Ъ": 691,
      "Ы": 692,
      "Ь": 693,
      "Э": 694,
      "Ю": 695,
      "Я": 696,
      "а": 697,
      "б": 698,
      "в": 699,
      "г": 700,
      "д": 701,
      "е": 702,
      "ж": 703,
      "з": 704,
      "и": 705,
      "й": 706,
      "к": 707,
      "л": 708,
      "м": 709,
      "н": 710,
      "о": 711,
      "п": 712,
      "р": 713,
      "с": 714,
      "т": 715,
      "у": 716,
      "ф": 717,
      "х": 718,
      "ц": 719,
      "ч": 720,
      "ш": 721,
      "щ": 722,
      "ъ": 723,
      "ы": 724,
      "ь": 725,
      "э": 726,
      "ю": 727,
      "я": 728,
      "ѐ": 729,
      "ё": 730,
      "ђ": 731,
      "ѓ": 732,
      "є": 733,
      "ѕ": 734,
      "і": 735,
      "ї": 736,
      "ј": 737,
      "љ": 738,
      "њ": 739,
      "ћ": 740,
      "ќ": 741,
      "ў": 742,
      "џ": 743,
      "ѡ": 744,
      "Ѣ": 745,
      "Ѩ": 746,
      "Ѵ": 747,
      "Ѻ": 748,
      "Ѿ": 749,
      "ҁ": 750,
      "҆": 751,
      "Ґ": 752,
      "ґ": 753,
      "ғ": 754,
      "җ": 755,
      "Қ": 756,
      "қ": 757,
      "ҝ": 758,
      "ң": 759,
      "Ҫ": 760,
      "ҫ": 761,
      "Ү": 762,
      "ү": 763,
      "ҷ": 764,
      "Һ": 765,
      "һ": 766,
      "ӏ": 767,
      "ӑ": 768,
      "ӓ": 769,
      "ӕ": 770,
      "ӗ": 771,
      "ә": 772,
      "ӣ": 773,
      "Ӧ": 774,
      "ӧ": 775,
      "Ө": 776,
      "ө": 777,
      "ӳ": 778,
      "ԁ": 779,
      "ԍ": 780,
      "ԛ": 781,
      "Ԝ": 782,
      "Ա": 783,
      "Գ": 784,
      "Դ": 785,
      "Ե": 786,
      "Զ": 787,
      "Ը": 788,
      "Թ": 789,
      "Ի": 790,
      "Լ": 791,
      "Կ": 792,
      "Հ": 793,
      "Ճ": 794,
      "Մ": 795,
      "Յ": 796,
      "Ն": 797,
      "Շ": 798,
      "Ո": 799,
      "Պ": 800,
      "Ռ": 801,
      "Ս": 802,
      "Վ": 803,
      "Տ": 804,
      "Ր": 805,
      "Ւ": 806,
      "Փ": 807,
      "Ք": 808,
      "՚": 809,
      "՜": 810,
      "՝": 811,
      "ՠ": 812,
      "ա": 813,
      "բ": 814,
      "գ": 815,
      "դ": 816,
      "ե": 817,
      "զ": 818,
      "է": 819,
      "ը": 820,
      "թ": 821,
      "ի": 822,
      "լ": 823,
      "խ": 824,
      "ծ": 825,
      "կ": 826,
      "հ": 827,
      "ղ": 828,
      "ճ": 829,
      "մ": 830,
      "յ": 831,
      "ն": 832,
      "շ": 833,
      "ո": 834,
      "չ": 835,
      "պ": 836,
      "ջ": 837,
      "ս": 838,
      "վ": 839,
      "տ": 840,
      "ր": 841,
      "ց": 842,
      "ւ": 843,
      "փ": 844,
      "ք": 845,
      "օ": 846,
      "ֆ": 847,
      "։": 848,
      "֑": 849,
      "֒": 850,
      "֔": 851,
      "֖": 852,
      "֗": 853,
      "֘": 854,
      "֙": 855,
      "֚": 856,
      "֛": 857,
      "֜": 858,
      "֞": 859,
      "֠": 860,
      "֣": 861,
      "֤": 862,
      "֥": 863,
      "֧": 864,
      "֨": 865,
      "֩": 866,
      "֫": 867,
      "֭": 868,
      "֮": 869,
      "ְ": 870,
      "ֱ": 871,
      "ֲ": 872,
      "ֳ": 873,
      "ִ": 874,
      "ֵ": 875,
      "ֶ": 876,
      "ַ": 877,
      "ָ": 878,
      "ֹ": 879,
      "ֻ": 880,
      "ּ": 881,
      "ֽ": 882,
      "־": 883,
      "׀": 884,
      "ׁ": 885,
      "ׂ": 886,
      "׃": 887,
      "ׅ": 888,
      "ׇ": 889,
      "א": 890,
      "ב": 891,
      "ג": 892,
      "ד": 893,
      "ה": 894,
      "ו": 895,
      "ז": 896,
      "ח": 897,
      "ט": 898,
      "י": 899,
      "ך": 900,
      "כ": 901,
      "ל": 902,
      "ם": 903,
      "מ": 904,
      "ן": 905,
      "נ": 906,
      "ס": 907,
      "ע": 908,
      "ף": 909,
      "פ": 910,
      "ץ": 911,
      "צ": 912,
      "ק": 913,
      "ר": 914,
      "ש": 915,
      "ת": 916,
      "ײ": 917,
      "״": 918,
      "؀": 919,
      "؁": 920,
      "؂": 921,
      "؃": 922,
      "؄": 923,
      "؅": 924,
      "؆": 925,
      "؇": 926,
      "؈": 927,
      "؉": 928,
      "؊": 929,
      "،": 930,
      "؍": 931,
      "؎": 932,
      "؏": 933,
      "ؐ": 934,
      "ؑ": 935,
      "ؒ": 936,
      "ؓ": 937,
      "ؔ": 938,
      "ؕ": 939,
      "ؚ": 940,
      "؛": 941,
      "؜": 942,
      "؞": 943,
      "؟": 944,
      "ء": 945,
      "آ": 946,
      "أ": 947,
      "ؤ": 948,
      "إ": 949,
      "ئ": 950,
      "ا": 951,
      "ب": 952,
      "ة": 953,
      "ت": 954,
      "ث": 955,
      "ج": 956,
      "ح": 957,
      "خ": 958,
      "د": 959,
      "ذ": 960,
      "ر": 961,
      "ز": 962,
      "س": 963,
      "ش": 964,
      "ص": 965,
      "ض": 966,
      "ط": 967,
      "ظ": 968,
      "ع": 969,
      "غ": 970,
      "ػ": 971,
      "ـ": 972,
      "ف": 973,
      "ق": 974,
      "ك": 975,
      "ل": 976,
      "م": 977,
      "ن": 978,
      "ه": 979,
      "و": 980,
      "ى": 981,
      "ي": 982,
      "ً": 983,
      "ٌ": 984,
      "ٍ": 985,
      "َ": 986,
      "ُ": 987,
      "ِ": 988,
      "ّ": 989,
      "ْ": 990,
      "ٓ": 991,
      "ٔ": 992,
      "ٕ": 993,
      "ٖ": 994,
      "ٗ": 995,
      "٘": 996,
      "ٙ": 997,
      "ٚ": 998,
      "ٛ": 999,
      "ٜ": 1000,
      "ٝ": 1001,
      "ٞ": 1002,
      "ٟ": 1003,
      "٠": 1004,
      "١": 1005,
      "٢": 1006,
      "٣": 1007,
      "٤": 1008,
      "٥": 1009,
      "٦": 1010,
      "٧": 1011,
      "٨": 1012,
      "٩": 1013,
      "٪": 1014,
      "٫": 1015,
      "٬": 1016,
      "٭": 1017,
      "ٮ": 1018,
      "ٰ": 1019,
      "ٱ": 1020,
      "ٲ": 1021,
      "ٴ": 1022,
      "ٹ": 1023,
      "ٺ": 1024,
      "ٻ": 1025,
      "ټ": 1026,
      "ٽ": 1027,
      "پ": 1028,
      "ٿ": 1029,
      "ڀ": 1030,
      "ځ": 1031,
      "ڃ": 1032,
      "ڄ": 1033,
      "څ": 1034,
      "چ": 1035,
      "ڇ": 1036,
      "ڈ": 1037,
      "ډ": 1038,
      "ڊ": 1039,
      "ڋ": 1040,
      "ڌ": 1041,
      "ڎ": 1042,
      "ڏ": 1043,
      "ڐ": 1044,
      "ڑ": 1045,
      "ڒ": 1046,
      "ړ": 1047,
      "ڔ": 1048,
      "ږ": 1049,
      "ژ": 1050,
      "ڙ": 1051,
      "ښ": 1052,
      "ڛ": 1053,
      "ڤ": 1054,
      "ڦ": 1055,
      "ک": 1056,
      "ڪ": 1057,
      "ګ": 1058,
      "ڭ": 1059,
      "ڮ": 1060,
      "گ": 1061,
      "ڰ": 1062,
      "ڳ": 1063,
      "ں": 1064,
      "ڻ": 1065,
      "ڼ": 1066,
      "ھ": 1067,
      "ۀ": 1068,
      "ہ": 1069,
      "ۂ": 1070,
      "ۃ": 1071,
      "ۆ": 1072,
      "ۇ": 1073,
      "ۋ": 1074,
      "ی": 1075,
      "ۍ": 1076,
      "ێ": 1077,
      "ې": 1078,
      "ے": 1079,
      "ۓ": 1080,
      "۔": 1081,
      "ە": 1082,
      "ۖ": 1083,
      "ۗ": 1084,
      "ۘ": 1085,
      "ۙ": 1086,
      "ۚ": 1087,
      "ۛ": 1088,
      "ۜ": 1089,
      "۝": 1090,
      "۞": 1091,
      "۟": 1092,
      "۠": 1093,
      "ۡ": 1094,
      "ۢ": 1095,
      "ۣ": 1096,
      "ۤ": 1097,
      "ۥ": 1098,
      "ۦ": 1099,
      "ۧ": 1100,
      "ۨ": 1101,
      "۩": 1102,
      "۪": 1103,
      "۫": 1104,
      "۬": 1105,
      "ۭ": 1106,
      "۰": 1107,
      "۱": 1108,
      "۲": 1109,
      "۳": 1110,
      "۴": 1111,
      "۵": 1112,
      "۶": 1113,
      "۷": 1114,
      "۸": 1115,
      "۹": 1116,
      "ۺ": 1117,
      "ۻ": 1118,
      "ۼ": 1119,
      "۽": 1120,
      "۾": 1121,
      "ܐ": 1122,
      "ܓ": 1123,
      "ܕ": 1124,
      "ܗ": 1125,
      "ܘ": 1126,
      "ܙ": 1127,
      "ܚ": 1128,
      "ܝ": 1129,
      "ܟ": 1130,
      "ܠ": 1131,
      "ܡ": 1132,
      "ܢ": 1133,
      "ܥ": 1134,
      "ܦ": 1135,
      "ܩ": 1136,
      "ܪ": 1137,
      "ܫ": 1138,
      "ܬ": 1139,
      "ܰ": 1140,
      "ܳ": 1141,
      "ݒ": 1142,
      "ݨ": 1143,
      "ݯ": 1144,
      "ݰ": 1145,
      "ݱ": 1146,
      "ހ": 1147,
      "ނ": 1148,
      "ބ": 1149,
      "ކ": 1150,
      "ވ": 1151,
      "މ": 1152,
      "ދ": 1153,
      "ތ": 1154,
      "ލ": 1155,
      "ގ": 1156,
      "ސ": 1157,
      "ޝ": 1158,
      "ޤ": 1159,
      "ަ": 1160,
      "ި": 1161,
      "ީ": 1162,
      "ު": 1163,
      "ެ": 1164,
      "ް": 1165,
      "߂": 1166,
      "ߊ": 1167,
      "ߋ": 1168,
      "ߍ": 1169,
      "ߎ": 1170,
      "ߑ": 1171,
      "ߓ": 1172,
      "ߗ": 1173,
      "ߘ": 1174,
      "ߜ": 1175,
      "ߝ": 1176,
      "ߞ": 1177,
      "ߟ": 1178,
      "ߠ": 1179,
      "ߡ": 1180,
      "ߦ": 1181,
      "߬": 1182,
      "߲": 1183,
      "߳": 1184,
      "ߴ": 1185,
      "ߵ": 1186,
      "߶": 1187,
      "߽": 1188,
      "ࡤ": 1189,
      "ࣰ": 1190,
      "ࣱ": 1191,
      "ࣲ": 1192,
      "ࣻ": 1193,
      "ࣿ": 1194,
      "ऀ": 1195,
      "ँ": 1196,
      "ं": 1197,
      "ः": 1198,
      "अ": 1199,
      "आ": 1200,
      "इ": 1201,
      "ई": 1202,
      "उ": 1203,
      "ऊ": 1204,
      "ऋ": 1205,
      "ऌ": 1206,
      "ऍ": 1207,
      "ऎ": 1208,
      "ए": 1209,
      "ऐ": 1210,
      "ऑ": 1211,
      "ऒ": 1212,
      "ओ": 1213,
      "औ": 1214,
      "क": 1215,
      "ख": 1216,
      "ग": 1217,
      "घ": 1218,
      "ङ": 1219,
      "च": 1220,
      "छ": 1221,
      "ज": 1222,
      "झ": 1223,
      "ञ": 1224,
      "ट": 1225,
      "ठ": 1226,
      "ड": 1227,
      "ढ": 1228,
      "ण": 1229,
      "त": 1230,
      "थ": 1231,
      "द": 1232,
      "ध": 1233,
      "न": 1234,
      "ऩ": 1235,
      "प": 1236,
      "फ": 1237,
      "ब": 1238,
      "भ": 1239,
      "म": 1240,
      "य": 1241,
      "र": 1242,
      "ऱ": 1243,
      "ल": 1244,
      "ळ": 1245,
      "ऴ": 1246,
      "व": 1247,
      "श": 1248,
      "ष": 1249,
      "स": 1250,
      "ह": 1251,
      "ऺ": 1252,
      "़": 1253,
      "ऽ": 1254,
      "ा": 1255,
      "ि": 1256,
      "ी": 1257,
      "ु": 1258,
      "ू": 1259,
      "ृ": 1260,
      "ॄ": 1261,
      "ॅ": 1262,
      "ॆ": 1263,
      "े": 1264,
      "ै": 1265,
      "ॉ": 1266,
      "ॊ": 1267,
      "ो": 1268,
      "ौ": 1269,
      "्": 1270,
      "ॏ": 1271,
      "ॐ": 1272,
      "॑": 1273,
      "॒": 1274,
      "॓": 1275,
      "॔": 1276,
      "ॕ": 1277,
      "ॠ": 1278,
      "ॡ": 1279,
      "ॢ": 1280,
      "ॣ": 1281,
      "।": 1282,
      "॥": 1283,
      "०": 1284,
      "१": 1285,
      "२": 1286,
      "३": 1287,
      "४": 1288,
      "५": 1289,
      "६": 1290,
      "७": 1291,
      "८": 1292,
      "९": 1293,
      "॰": 1294,
      "ॲ": 1295,
      "ॴ": 1296,
      "ॵ": 1297,
      "ॶ": 1298,
      "ॺ": 1299,
      "ॻ": 1300,
      "ॼ": 1301,
      "ॽ": 1302,
      "ॾ": 1303,
      "ॿ": 1304,
      "ঁ": 1305,
      "ং": 1306,
      "ঃ": 1307,
      "অ": 1308,
      "আ": 1309,
      "ই": 1310,
      "ঈ": 1311,
      "উ": 1312,
      "ঊ": 1313,
      "ঋ": 1314,
      "ঌ": 1315,
      "এ": 1316,
      "ঐ": 1317,
      "ও": 1318,
      "ঔ": 1319,
      "ক": 1320,
      "খ": 1321,
      "গ": 1322,
      "ঘ": 1323,
      "ঙ": 1324,
      "চ": 1325,
      "ছ": 1326,
      "জ": 1327,
      "ঝ": 1328,
      "ঞ": 1329,
      "ট": 1330,
      "ঠ": 1331,
      "ড": 1332,
      "ঢ": 1333,
      "ণ": 1334,
      "ত": 1335,
      "থ": 1336,
      "দ": 1337,
      "ধ": 1338,
      "ন": 1339,
      "঩": 1340,
      "প": 1341,
      "ফ": 1342,
      "ব": 1343,
      "ভ": 1344,
      "ম": 1345,
      "য": 1346,
      "র": 1347,
      "ল": 1348,
      "শ": 1349,
      "ষ": 1350,
      "স": 1351,
      "হ": 1352,
      "়": 1353,
      "ঽ": 1354,
      "া": 1355,
      "ি": 1356,
      "ী": 1357,
      "ু": 1358,
      "ূ": 1359,
      "ৃ": 1360,
      "ৄ": 1361,
      "ে": 1362,
      "ৈ": 1363,
      "ো": 1364,
      "ৌ": 1365,
      "্": 1366,
      "ৎ": 1367,
      "ৗ": 1368,
      "৛": 1369,
      "ৠ": 1370,
      "ৡ": 1371,
      "০": 1372,
      "১": 1373,
      "২": 1374,
      "৩": 1375,
      "৪": 1376,
      "৫": 1377,
      "৬": 1378,
      "৭": 1379,
      "৮": 1380,
      "৯": 1381,
      "ৰ": 1382,
      "ৱ": 1383,
      "৲": 1384,
      "৳": 1385,
      "৴": 1386,
      "৵": 1387,
      "৷": 1388,
      "৹": 1389,
      "৺": 1390,
      "৻": 1391,
      "਀": 1392,
      "ਁ": 1393,
      "ਂ": 1394,
      "ਃ": 1395,
      "ਅ": 1396,
      "ਆ": 1397,
      "ਇ": 1398,
      "ਈ": 1399,
      "ਉ": 1400,
      "ਊ": 1401,
      "਍": 1402,
      "਎": 1403,
      "ਏ": 1404,
      "ਐ": 1405,
      "ਓ": 1406,
      "ਔ": 1407,
      "ਕ": 1408,
      "ਖ": 1409,
      "ਗ": 1410,
      "ਘ": 1411,
      "ਙ": 1412,
      "ਚ": 1413,
      "ਛ": 1414,
      "ਜ": 1415,
      "ਝ": 1416,
      "ਞ": 1417,
      "ਟ": 1418,
      "ਠ": 1419,
      "ਡ": 1420,
      "ਢ": 1421,
      "ਣ": 1422,
      "ਤ": 1423,
      "ਥ": 1424,
      "ਦ": 1425,
      "ਧ": 1426,
      "ਨ": 1427,
      "਩": 1428,
      "ਪ": 1429,
      "ਫ": 1430,
      "ਬ": 1431,
      "ਭ": 1432,
      "ਮ": 1433,
      "ਯ": 1434,
      "ਰ": 1435,
      "ਲ": 1436,
      "਴": 1437,
      "ਵ": 1438,
      "ਸ": 1439,
      "ਹ": 1440,
      "਼": 1441,
      "਽": 1442,
      "ਾ": 1443,
      "ਿ": 1444,
      "ੀ": 1445,
      "ੁ": 1446,
      "ੂ": 1447,
      "੄": 1448,
      "ੇ": 1449,
      "ੈ": 1450,
      "੉": 1451,
      "ੋ": 1452,
      "ੌ": 1453,
      "੍": 1454,
      "੎": 1455,
      "੏": 1456,
      "ੑ": 1457,
      "੒": 1458,
      "੖": 1459,
      "੗": 1460,
      "ੜ": 1461,
      "੠": 1462,
      "੦": 1463,
      "੧": 1464,
      "੨": 1465,
      "੩": 1466,
      "੪": 1467,
      "੫": 1468,
      "੬": 1469,
      "੭": 1470,
      "੮": 1471,
      "੯": 1472,
      "ੰ": 1473,
      "ੱ": 1474,
      "ੲ": 1475,
      "ੳ": 1476,
      "ੴ": 1477,
      "ੵ": 1478,
      "੶": 1479,
      "੿": 1480,
      "ઁ": 1481,
      "ં": 1482,
      "ઃ": 1483,
      "અ": 1484,
      "આ": 1485,
      "ઇ": 1486,
      "ઈ": 1487,
      "ઉ": 1488,
      "ઊ": 1489,
      "ઋ": 1490,
      "ઌ": 1491,
      "ઍ": 1492,
      "઎": 1493,
      "એ": 1494,
      "ઐ": 1495,
      "ઑ": 1496,
      "ઓ": 1497,
      "ઔ": 1498,
      "ક": 1499,
      "ખ": 1500,
      "ગ": 1501,
      "ઘ": 1502,
      "ઙ": 1503,
      "ચ": 1504,
      "છ": 1505,
      "જ": 1506,
      "ઝ": 1507,
      "ઞ": 1508,
      "ટ": 1509,
      "ઠ": 1510,
      "ડ": 1511,
      "ઢ": 1512,
      "ણ": 1513,
      "ત": 1514,
      "થ": 1515,
      "દ": 1516,
      "ધ": 1517,
      "ન": 1518,
      "઩": 1519,
      "પ": 1520,
      "ફ": 1521,
      "બ": 1522,
      "ભ": 1523,
      "મ": 1524,
      "ય": 1525,
      "ર": 1526,
      "઱": 1527,
      "લ": 1528,
      "ળ": 1529,
      "વ": 1530,
      "શ": 1531,
      "ષ": 1532,
      "સ": 1533,
      "હ": 1534,
      "઺": 1535,
      "઼": 1536,
      "ઽ": 1537,
      "ા": 1538,
      "િ": 1539,
      "ી": 1540,
      "ુ": 1541,
      "ૂ": 1542,
      "ૃ": 1543,
      "ૄ": 1544,
      "ૅ": 1545,
      "૆": 1546,
      "ે": 1547,
      "ૈ": 1548,
      "ૉ": 1549,
      "ો": 1550,
      "ૌ": 1551,
      "્": 1552,
      "ૐ": 1553,
      "૘": 1554,
      "૟": 1555,
      "ૠ": 1556,
      "ૢ": 1557,
      "૦": 1558,
      "૧": 1559,
      "૨": 1560,
      "૩": 1561,
      "૪": 1562,
      "૫": 1563,
      "૬": 1564,
      "૭": 1565,
      "૮": 1566,
      "૯": 1567,
      "૰": 1568,
      "૱": 1569,
      "૲": 1570,
      "૳": 1571,
      "૴": 1572,
      "૵": 1573,
      "૶": 1574,
      "૷": 1575,
      "ૻ": 1576,
      "૾": 1577,
      "૿": 1578,
      "ଁ": 1579,
      "ଂ": 1580,
      "ଅ": 1581,
      "ଆ": 1582,
      "ଇ": 1583,
      "ଉ": 1584,
      "ଋ": 1585,
      "ଏ": 1586,
      "଑": 1587,
      "଒": 1588,
      "ଓ": 1589,
      "କ": 1590,
      "ଖ": 1591,
      "ଗ": 1592,
      "ଘ": 1593,
      "ଙ": 1594,
      "ଚ": 1595,
      "ଛ": 1596,
      "ଜ": 1597,
      "ଞ": 1598,
      "ଟ": 1599,
      "ଠ": 1600,
      "ଡ": 1601,
      "ଢ": 1602,
      "ଣ": 1603,
      "ତ": 1604,
      "ଥ": 1605,
      "ଦ": 1606,
      "ଧ": 1607,
      "ନ": 1608,
      "ପ": 1609,
      "ଫ": 1610,
      "ବ": 1611,
      "ଭ": 1612,
      "ମ": 1613,
      "ଯ": 1614,
      "ର": 1615,
      "ଲ": 1616,
      "ଳ": 1617,
      "଴": 1618,
      "ଶ": 1619,
      "ଷ": 1620,
      "ସ": 1621,
      "ହ": 1622,
      "଼": 1623,
      "ା": 1624,
      "ି": 1625,
      "ୀ": 1626,
      "ୁ": 1627,
      "ୂ": 1628,
      "ୃ": 1629,
      "େ": 1630,
      "ୈ": 1631,
      "ୋ": 1632,
      "ୌ": 1633,
      "୍": 1634,
      "୔": 1635,
      "ୟ": 1636,
      "୦": 1637,
      "୧": 1638,
      "୨": 1639,
      "୩": 1640,
      "୪": 1641,
      "୫": 1642,
      "୬": 1643,
      "୭": 1644,
      "୮": 1645,
      "ୱ": 1646,
      "஁": 1647,
      "ஂ": 1648,
      "ஃ": 1649,
      "அ": 1650,
      "ஆ": 1651,
      "இ": 1652,
      "ஈ": 1653,
      "உ": 1654,
      "ஊ": 1655,
      "஋": 1656,
      "஌": 1657,
      "எ": 1658,
      "ஏ": 1659,
      "ஐ": 1660,
      "஑": 1661,
      "ஒ": 1662,
      "ஓ": 1663,
      "ஔ": 1664,
      "க": 1665,
      "஖": 1666,
      "ங": 1667,
      "ச": 1668,
      "ஜ": 1669,
      "ஞ": 1670,
      "ட": 1671,
      "஢": 1672,
      "ண": 1673,
      "த": 1674,
      "஥": 1675,
      "஦": 1676,
      "஧": 1677,
      "ந": 1678,
      "ன": 1679,
      "ப": 1680,
      "஫": 1681,
      "஬": 1682,
      "஭": 1683,
      "ம": 1684,
      "ய": 1685,
      "ர": 1686,
      "ற": 1687,
      "ல": 1688,
      "ள": 1689,
      "ழ": 1690,
      "வ": 1691,
      "ஶ": 1692,
      "ஷ": 1693,
      "ஸ": 1694,
      "ஹ": 1695,
      "஻": 1696,
      "ா": 1697,
      "ி": 1698,
      "ீ": 1699,
      "ு": 1700,
      "ூ": 1701,
      "௃": 1702,
      "௄": 1703,
      "௅": 1704,
      "ெ": 1705,
      "ே": 1706,
      "ை": 1707,
      "ொ": 1708,
      "ோ": 1709,
      "ௌ": 1710,
      "்": 1711,
      "ௐ": 1712,
      "ௗ": 1713,
      "௦": 1714,
      "௧": 1715,
      "௨": 1716,
      "௩": 1717,
      "௪": 1718,
      "௫": 1719,
      "௬": 1720,
      "௭": 1721,
      "௮": 1722,
      "௯": 1723,
      "௰": 1724,
      "௱": 1725,
      "௲": 1726,
      "௳": 1727,
      "௵": 1728,
      "௶": 1729,
      "௹": 1730,
      "௾": 1731,
      "ఁ": 1732,
      "ం": 1733,
      "ః": 1734,
      "అ": 1735,
      "ఆ": 1736,
      "ఇ": 1737,
      "ఈ": 1738,
      "ఉ": 1739,
      "ఊ": 1740,
      "ఋ": 1741,
      "ఌ": 1742,
      "ఎ": 1743,
      "ఏ": 1744,
      "ఐ": 1745,
      "ఒ": 1746,
      "ఓ": 1747,
      "ఔ": 1748,
      "క": 1749,
      "ఖ": 1750,
      "గ": 1751,
      "ఘ": 1752,
      "ఙ": 1753,
      "చ": 1754,
      "ఛ": 1755,
      "జ": 1756,
      "ఝ": 1757,
      "ఞ": 1758,
      "ట": 1759,
      "ఠ": 1760,
      "డ": 1761,
      "ఢ": 1762,
      "ణ": 1763,
      "త": 1764,
      "థ": 1765,
      "ద": 1766,
      "ధ": 1767,
      "న": 1768,
      "ప": 1769,
      "ఫ": 1770,
      "బ": 1771,
      "భ": 1772,
      "మ": 1773,
      "య": 1774,
      "ర": 1775,
      "ఱ": 1776,
      "ల": 1777,
      "ళ": 1778,
      "ఴ": 1779,
      "వ": 1780,
      "శ": 1781,
      "ష": 1782,
      "స": 1783,
      "హ": 1784,
      "఼": 1785,
      "ఽ": 1786,
      "ా": 1787,
      "ి": 1788,
      "ీ": 1789,
      "ు": 1790,
      "ూ": 1791,
      "ృ": 1792,
      "ౄ": 1793,
      "ె": 1794,
      "ే": 1795,
      "ై": 1796,
      "ొ": 1797,
      "ో": 1798,
      "ౌ": 1799,
      "్": 1800,
      "౎": 1801,
      "ౕ": 1802,
      "ౖ": 1803,
      "ౘ": 1804,
      "ౙ": 1805,
      "ౠ": 1806,
      "ౡ": 1807,
      "ౢ": 1808,
      "ౣ": 1809,
      "౦": 1810,
      "౧": 1811,
      "౨": 1812,
      "౩": 1813,
      "౪": 1814,
      "౫": 1815,
      "౬": 1816,
      "౭": 1817,
      "౮": 1818,
      "౯": 1819,
      "౹": 1820,
      "౼": 1821,
      "౽": 1822,
      "౾": 1823,
      "ಂ": 1824,
      "ಃ": 1825,
      "ಅ": 1826,
      "ಆ": 1827,
      "ಇ": 1828,
      "ಈ": 1829,
      "ಉ": 1830,
      "ಊ": 1831,
      "ಋ": 1832,
      "ಌ": 1833,
      "ಎ": 1834,
      "ಏ": 1835,
      "ಐ": 1836,
      "ಒ": 1837,
      "ಓ": 1838,
      "ಔ": 1839,
      "ಕ": 1840,
      "ಖ": 1841,
      "ಗ": 1842,
      "ಘ": 1843,
      "ಙ": 1844,
      "ಚ": 1845,
      "ಛ": 1846,
      "ಜ": 1847,
      "ಝ": 1848,
      "ಞ": 1849,
      "ಟ": 1850,
      "ಠ": 1851,
      "ಡ": 1852,
      "ಢ": 1853,
      "ಣ": 1854,
      "ತ": 1855,
      "ಥ": 1856,
      "ದ": 1857,
      "ಧ": 1858,
      "ನ": 1859,
      "ಪ": 1860,
      "ಫ": 1861,
      "ಬ": 1862,
      "ಭ": 1863,
      "ಮ": 1864,
      "ಯ": 1865,
      "ರ": 1866,
      "ಱ": 1867,
      "ಲ": 1868,
      "ಳ": 1869,
      "ವ": 1870,
      "ಶ": 1871,
      "ಷ": 1872,
      "ಸ": 1873,
      "ಹ": 1874,
      "಻": 1875,
      "಼": 1876,
      "ಽ": 1877,
      "ಾ": 1878,
      "ಿ": 1879,
      "ೀ": 1880,
      "ು": 1881,
      "ೂ": 1882,
      "ೃ": 1883,
      "ೄ": 1884,
      "ೆ": 1885,
      "ೇ": 1886,
      "ೈ": 1887,
      "ೊ": 1888,
      "ೋ": 1889,
      "ೌ": 1890,
      "್": 1891,
      "ೕ": 1892,
      "ೖ": 1893,
      "ೞ": 1894,
      "ೠ": 1895,
      "ೢ": 1896,
      "೦": 1897,
      "೧": 1898,
      "೨": 1899,
      "೩": 1900,
      "೪": 1901,
      "೫": 1902,
      "೬": 1903,
      "೭": 1904,
      "೮": 1905,
      "೯": 1906,
      "ೱ": 1907,
      "ೲ": 1908,
      "೵": 1909,
      "ം": 1910,
      "ഃ": 1911,
      "അ": 1912,
      "ആ": 1913,
      "ഇ": 1914,
      "ഈ": 1915,
      "ഉ": 1916,
      "ഊ": 1917,
      "ഋ": 1918,
      "ഌ": 1919,
      "എ": 1920,
      "ഏ": 1921,
      "ഐ": 1922,
      "ഒ": 1923,
      "ഓ": 1924,
      "ഔ": 1925,
      "ക": 1926,
      "ഖ": 1927,
      "ഗ": 1928,
      "ഘ": 1929,
      "ങ": 1930,
      "ച": 1931,
      "ഛ": 1932,
      "ജ": 1933,
      "ഝ": 1934,
      "ഞ": 1935,
      "ട": 1936,
      "ഠ": 1937,
      "ഡ": 1938,
      "ഢ": 1939,
      "ണ": 1940,
      "ത": 1941,
      "ഥ": 1942,
      "ദ": 1943,
      "ധ": 1944,
      "ന": 1945,
      "പ": 1946,
      "ഫ": 1947,
      "ബ": 1948,
      "ഭ": 1949,
      "മ": 1950,
      "യ": 1951,
      "ര": 1952,
      "റ": 1953,
      "ല": 1954,
      "ള": 1955,
      "ഴ": 1956,
      "വ": 1957,
      "ശ": 1958,
      "ഷ": 1959,
      "സ": 1960,
      "ഹ": 1961,
      "഼": 1962,
      "ഽ": 1963,
      "ാ": 1964,
      "ി": 1965,
      "ീ": 1966,
      "ു": 1967,
      "ൂ": 1968,
      "ൃ": 1969,
      "ൄ": 1970,
      "െ": 1971,
      "േ": 1972,
      "ൈ": 1973,
      "ൊ": 1974,
      "ോ": 1975,
      "ൌ": 1976,
      "്": 1977,
      "ൎ": 1978,
      "ൗ": 1979,
      "ൡ": 1980,
      "൦": 1981,
      "൧": 1982,
      "൨": 1983,
      "൩": 1984,
      "൪": 1985,
      "൫": 1986,
      "൬": 1987,
      "൭": 1988,
      "൮": 1989,
      "൯": 1990,
      "൱": 1991,
      "൹": 1992,
      "ൺ": 1993,
      "ൻ": 1994,
      "ർ": 1995,
      "ൽ": 1996,
      "ൾ": 1997,
      "ൿ": 1998,
      "ං": 1999,
      "අ": 2000,
      "ආ": 2001,
      "ඇ": 2002,
      "ඉ": 2003,
      "ඊ": 2004,
      "උ": 2005,
      "එ": 2006,
      "ඒ": 2007,
      "ඔ": 2008,
      "ක": 2009,
      "ඛ": 2010,
      "ග": 2011,
      "ඟ": 2012,
      "ච": 2013,
      "ජ": 2014,
      "ට": 2015,
      "ඩ": 2016,
      "ණ": 2017,
      "ඬ": 2018,
      "ත": 2019,
      "ථ": 2020,
      "ද": 2021,
      "ධ": 2022,
      "න": 2023,
      "ඳ": 2024,
      "ප": 2025,
      "බ": 2026,
      "භ": 2027,
      "ම": 2028,
      "ඹ": 2029,
      "ය": 2030,
      "ර": 2031,
      "ල": 2032,
      "ව": 2033,
      "ශ": 2034,
      "ෂ": 2035,
      "ස": 2036,
      "හ": 2037,
      "ළ": 2038,
      "ෆ": 2039,
      "්": 2040,
      "ා": 2041,
      "ැ": 2042,
      "ෑ": 2043,
      "ි": 2044,
      "ී": 2045,
      "ු": 2046,
      "ූ": 2047,
      "ෘ": 2048,
      "ෙ": 2049,
      "ේ": 2050,
      "ො": 2051,
      "ෝ": 2052,
      "ก": 2053,
      "ข": 2054,
      "ค": 2055,
      "ฆ": 2056,
      "ง": 2057,
      "จ": 2058,
      "ฉ": 2059,
      "ช": 2060,
      "ซ": 2061,
      "ญ": 2062,
      "ฐ": 2063,
      "ณ": 2064,
      "ด": 2065,
      "ต": 2066,
      "ถ": 2067,
      "ท": 2068,
      "ธ": 2069,
      "น": 2070,
      "บ": 2071,
      "ป": 2072,
      "ผ": 2073,
      "ฝ": 2074,
      "พ": 2075,
      "ฟ": 2076,
      "ภ": 2077,
      "ม": 2078,
      "ย": 2079,
      "ร": 2080,
      "ฤ": 2081,
      "ล": 2082,
      "ว": 2083,
      "ศ": 2084,
      "ษ": 2085,
      "ส": 2086,
      "ห": 2087,
      "ฬ": 2088,
      "อ": 2089,
      "ฯ": 2090,
      "ะ": 2091,
      "ั": 2092,
      "า": 2093,
      "ำ": 2094,
      "ิ": 2095,
      "ี": 2096,
      "ื": 2097,
      "ุ": 2098,
      "ู": 2099,
      "฿": 2100,
      "เ": 2101,
      "แ": 2102,
      "โ": 2103,
      "ใ": 2104,
      "ไ": 2105,
      "ๆ": 2106,
      "็": 2107,
      "่": 2108,
      "้": 2109,
      "๊": 2110,
      "๋": 2111,
      "์": 2112,
      "ํ": 2113,
      "๏": 2114,
      "๐": 2115,
      "๑": 2116,
      "๒": 2117,
      "๔": 2118,
      "๕": 2119,
      "๖": 2120,
      "๗": 2121,
      "๘": 2122,
      "๙": 2123,
      "๚": 2124,
      "ກ": 2125,
      "ຄ": 2126,
      "ງ": 2127,
      "ຊ": 2128,
      "ຍ": 2129,
      "ດ": 2130,
      "ຕ": 2131,
      "ທ": 2132,
      "ນ": 2133,
      "ບ": 2134,
      "ປ": 2135,
      "ຜ": 2136,
      "ພ": 2137,
      "ຟ": 2138,
      "ມ": 2139,
      "ຢ": 2140,
      "ຣ": 2141,
      "ລ": 2142,
      "ວ": 2143,
      "ສ": 2144,
      "ຫ": 2145,
      "ອ": 2146,
      "ະ": 2147,
      "ັ": 2148,
      "າ": 2149,
      "ິ": 2150,
      "ີ": 2151,
      "ື": 2152,
      "ຸ": 2153,
      "ູ": 2154,
      "ົ": 2155,
      "ຼ": 2156,
      "ເ": 2157,
      "ແ": 2158,
      "ໂ": 2159,
      "ໃ": 2160,
      "ໄ": 2161,
      "່": 2162,
      "້": 2163,
      "໌": 2164,
      "ໍ": 2165,
      "་": 2166,
      "།": 2167,
      "༒": 2168,
      "༢": 2169,
      "༽": 2170,
      "ཀ": 2171,
      "ཁ": 2172,
      "ག": 2173,
      "ང": 2174,
      "ཅ": 2175,
      "ཆ": 2176,
      "ཇ": 2177,
      "ཏ": 2178,
      "ཐ": 2179,
      "ད": 2180,
      "ན": 2181,
      "པ": 2182,
      "བ": 2183,
      "མ": 2184,
      "ཙ": 2185,
      "ཚ": 2186,
      "ཛ": 2187,
      "ཟ": 2188,
      "འ": 2189,
      "ཡ": 2190,
      "ར": 2191,
      "ལ": 2192,
      "ཤ": 2193,
      "ས": 2194,
      "ཧ": 2195,
      "ཨ": 2196,
      "ཱ": 2197,
      "ི": 2198,
      "ུ": 2199,
      "ེ": 2200,
      "ོ": 2201,
      "ཾ": 2202,
      "ྐ": 2203,
      "ྒ": 2204,
      "ྟ": 2205,
      "ྡ": 2206,
      "ྣ": 2207,
      "ྨ": 2208,
      "ྭ": 2209,
      "ྰ": 2210,
      "ྱ": 2211,
      "ྲ": 2212,
      "ླ": 2213,
      "࿐": 2214,
      "က": 2215,
      "ခ": 2216,
      "င": 2217,
      "စ": 2218,
      "ဆ": 2219,
      "ဇ": 2220,
      "ည": 2221,
      "ဋ": 2222,
      "တ": 2223,
      "ထ": 2224,
      "ဒ": 2225,
      "န": 2226,
      "ပ": 2227,
      "ဗ": 2228,
      "ဘ": 2229,
      "မ": 2230,
      "ယ": 2231,
      "ရ": 2232,
      "လ": 2233,
      "ဝ": 2234,
      "သ": 2235,
      "အ": 2236,
      "ာ": 2237,
      "ိ": 2238,
      "ီ": 2239,
      "ု": 2240,
      "ူ": 2241,
      "ေ": 2242,
      "ဲ": 2243,
      "ံ": 2244,
      "့": 2245,
      "း": 2246,
      "္": 2247,
      "်": 2248,
      "ျ": 2249,
      "ြ": 2250,
      "ှ": 2251,
      "ဿ": 2252,
      "၀": 2253,
      "၁": 2254,
      "၂": 2255,
      "၄": 2256,
      "၆": 2257,
      "၇": 2258,
      "၈": 2259,
      "၊": 2260,
      "။": 2261,
      "Ⴤ": 2262,
      "ა": 2263,
      "ბ": 2264,
      "გ": 2265,
      "დ": 2266,
      "ე": 2267,
      "ვ": 2268,
      "ზ": 2269,
      "თ": 2270,
      "ი": 2271,
      "კ": 2272,
      "ლ": 2273,
      "მ": 2274,
      "ნ": 2275,
      "ო": 2276,
      "პ": 2277,
      "რ": 2278,
      "ს": 2279,
      "ტ": 2280,
      "უ": 2281,
      "ფ": 2282,
      "ქ": 2283,
      "ღ": 2284,
      "შ": 2285,
      "ჩ": 2286,
      "ც": 2287,
      "ძ": 2288,
      "წ": 2289,
      "ხ": 2290,
      "ჯ": 2291,
      "ᄅ": 2292,
      "ᄇ": 2293,
      "ᄉ": 2294,
      "ᄊ": 2295,
      "ᄌ": 2296,
      "ᄑ": 2297,
      "ᅟ": 2298,
      "ᅠ": 2299,
      "ᅨ": 2300,
      "ᅲ": 2301,
      "ᅳ": 2302,
      "ᆞ": 2303,
      "ᆬ": 2304,
      "ሁ": 2305,
      "ህ": 2306,
      "ለ": 2307,
      "ሉ": 2308,
      "ላ": 2309,
      "ል": 2310,
      "ሎ": 2311,
      "ሐ": 2312,
      "ሓ": 2313,
      "ሕ": 2314,
      "መ": 2315,
      "ማ": 2316,
      "ም": 2317,
      "ሞ": 2318,
      "ሠ": 2319,
      "ሣ": 2320,
      "ረ": 2321,
      "ሩ": 2322,
      "ሪ": 2323,
      "ራ": 2324,
      "ር": 2325,
      "ሮ": 2326,
      "ሰ": 2327,
      "ሱ": 2328,
      "ሲ": 2329,
      "ሳ": 2330,
      "ስ": 2331,
      "ሻ": 2332,
      "ቁ": 2333,
      "ቃ": 2334,
      "ቅ": 2335,
      "ቆ": 2336,
      "ቋ": 2337,
      "በ": 2338,
      "ባ": 2339,
      "ቤ": 2340,
      "ብ": 2341,
      "ተ": 2342,
      "ቱ": 2343,
      "ታ": 2344,
      "ት": 2345,
      "ቶ": 2346,
      "ቸ": 2347,
      "ቼ": 2348,
      "ች": 2349,
      "ነ": 2350,
      "ኒ": 2351,
      "ና": 2352,
      "ን": 2353,
      "ኖ": 2354,
      "ኛ": 2355,
      "ኝ": 2356,
      "አ": 2357,
      "ኢ": 2358,
      "ኣ": 2359,
      "ኤ": 2360,
      "እ": 2361,
      "ከ": 2362,
      "ኩ": 2363,
      "ካ": 2364,
      "ክ": 2365,
      "ኳ": 2366,
      "ወ": 2367,
      "ዊ": 2368,
      "ዋ": 2369,
      "ው": 2370,
      "ዎ": 2371,
      "ዐ": 2372,
      "ዕ": 2373,
      "ዘ": 2374,
      "ዚ": 2375,
      "ዜ": 2376,
      "ዝ": 2377,
      "ዞ": 2378,
      "የ": 2379,
      "ያ": 2380,
      "ይ": 2381,
      "ደ": 2382,
      "ዱ": 2383,
      "ዲ": 2384,
      "ዳ": 2385,
      "ድ": 2386,
      "ጀ": 2387,
      "ጅ": 2388,
      "ጆ": 2389,
      "ገ": 2390,
      "ጊ": 2391,
      "ጋ": 2392,
      "ጌ": 2393,
      "ግ": 2394,
      "ጎ": 2395,
      "ጠ": 2396,
      "ጡ": 2397,
      "ጣ": 2398,
      "ጥ": 2399,
      "ጨ": 2400,
      "ጻ": 2401,
      "ፈ": 2402,
      "ፉ": 2403,
      "ፊ": 2404,
      "ፋ": 2405,
      "፠": 2406,
      "፡": 2407,
      "፣": 2408,
      "፤": 2409,
      "፨": 2410,
      "Ꭰ": 2411,
      "Ꭴ": 2412,
      "Ꭵ": 2413,
      "Ꭶ": 2414,
      "Ꭷ": 2415,
      "Ꮁ": 2416,
      "Ꮄ": 2417,
      "Ꮑ": 2418,
      "Ꮕ": 2419,
      "Ꮗ": 2420,
      "Ꮛ": 2421,
      "Ꮢ": 2422,
      "Ꮥ": 2423,
      "Ꮧ": 2424,
      "Ꮪ": 2425,
      "Ꮭ": 2426,
      "Ꮶ": 2427,
      "Ꮹ": 2428,
      "Ꮿ": 2429,
      "Ᏸ": 2430,
      "ᐅ": 2431,
      "ᐈ": 2432,
      "ᐉ": 2433,
      "ᑎ": 2434,
      "ᕕ": 2435,
      "ᚠ": 2436,
      "ᚢ": 2437,
      "ᚦ": 2438,
      "ᚨ": 2439,
      "ᚴ": 2440,
      "ᚼ": 2441,
      "ᛁ": 2442,
      "ᛅ": 2443,
      "ᛋ": 2444,
      "ᛏ": 2445,
      "ᛕ": 2446,
      "ᛚ": 2447,
      "ក": 2448,
      "ខ": 2449,
      "គ": 2450,
      "ង": 2451,
      "ច": 2452,
      "ឆ": 2453,
      "ជ": 2454,
      "ញ": 2455,
      "ដ": 2456,
      "ឌ": 2457,
      "ឍ": 2458,
      "ណ": 2459,
      "ត": 2460,
      "ថ": 2461,
      "ទ": 2462,
      "ធ": 2463,
      "ន": 2464,
      "ប": 2465,
      "ផ": 2466,
      "ព": 2467,
      "ភ": 2468,
      "ម": 2469,
      "យ": 2470,
      "រ": 2471,
      "ល": 2472,
      "វ": 2473,
      "ស": 2474,
      "ហ": 2475,
      "អ": 2476,
      "ឥ": 2477,
      "ឯ": 2478,
      "ឱ": 2479,
      "ា": 2480,
      "ិ": 2481,
      "ី": 2482,
      "ឹ": 2483,
      "ុ": 2484,
      "ូ": 2485,
      "ើ": 2486,
      "េ": 2487,
      "ែ": 2488,
      "ៃ": 2489,
      "ោ": 2490,
      "ៅ": 2491,
      "ំ": 2492,
      "ះ": 2493,
      "៉": 2494,
      "៊": 2495,
      "់": 2496,
      "៌": 2497,
      "័": 2498,
      "្": 2499,
      "។": 2500,
      "១": 2501,
      "៧": 2502,
      "៩": 2503,
      "ᠠ": 2504,
      "ᠢ": 2505,
      "ᠣ": 2506,
      "ᠨ": 2507,
      "ᠪ": 2508,
      "ᠭ": 2509,
      "ᠰ": 2510,
      "ᠵ": 2511,
      "ᠷ": 2512,
      "ᡤ": 2513,
      "ᡳ": 2514,
      "ᡵ": 2515,
      "ᥙ": 2516,
      "ᱚ": 2517,
      "ᱛ": 2518,
      "ᱞ": 2519,
      "ᱟ": 2520,
      "ᱠ": 2521,
      "ᱤ": 2522,
      "ᱨ": 2523,
      "ᱩ": 2524,
      "ᱪ": 2525,
      "ᱮ": 2526,
      "ᱯ": 2527,
      "ᱱ": 2528,
      "ᱺ": 2529,
      "᳚": 2530,
      "ᳵ": 2531,
      "ᳶ": 2532,
      "ᴀ": 2533,
      "ᴄ": 2534,
      "ᴅ": 2535,
      "ᴇ": 2536,
      "ᴉ": 2537,
      "ᴊ": 2538,
      "ᴋ": 2539,
      "ᴍ": 2540,
      "ᴏ": 2541,
      "ᴘ": 2542,
      "ᴛ": 2543,
      "ᴜ": 2544,
      "ᴠ": 2545,
      "ᴡ": 2546,
      "ᴢ": 2547,
      "ᴬ": 2548,
      "ᴮ": 2549,
      "ᴱ": 2550,
      "ᴸ": 2551,
      "ᴹ": 2552,
      "ᴺ": 2553,
      "ᵀ": 2554,
      "ᵃ": 2555,
      "ᵈ": 2556,
      "ᵉ": 2557,
      "ᵗ": 2558,
      "ᵛ": 2559,
      "ᵢ": 2560,
      "ᵥ": 2561,
      "ᵻ": 2562,
      "ᶟ": 2563,
      "ᶾ": 2564,
      "Ḁ": 2565,
      "Ḅ": 2566,
      "ḇ": 2567,
      "Ḍ": 2568,
      "ḍ": 2569,
      "Ḏ": 2570,
      "ḏ": 2571,
      "Ḕ": 2572,
      "ḕ": 2573,
      "ḗ": 2574,
      "ḙ": 2575,
      "Ḡ": 2576,
      "ḡ": 2577,
      "ḣ": 2578,
      "Ḥ": 2579,
      "ḥ": 2580,
      "Ḩ": 2581,
      "ḩ": 2582,
      "Ḫ": 2583,
      "ḫ": 2584,
      "ḭ": 2585,
      "Ḱ": 2586,
      "ḱ": 2587,
      "Ḳ": 2588,
      "ḳ": 2589,
      "Ḵ": 2590,
      "ḵ": 2591,
      "ḷ": 2592,
      "Ḹ": 2593,
      "ḻ": 2594,
      "ḿ": 2595,
      "Ṁ": 2596,
      "ṁ": 2597,
      "ṃ": 2598,
      "ṅ": 2599,
      "Ṇ": 2600,
      "ṇ": 2601,
      "ṉ": 2602,
      "Ṋ": 2603,
      "ṓ": 2604,
      "Ṕ": 2605,
      "ṙ": 2606,
      "Ṛ": 2607,
      "ṛ": 2608,
      "ṟ": 2609,
      "Ṣ": 2610,
      "ṣ": 2611,
      "ṧ": 2612,
      "Ṭ": 2613,
      "ṭ": 2614,
      "ṯ": 2615,
      "ṵ": 2616,
      "Ṿ": 2617,
      "ẉ": 2618,
      "Ẋ": 2619,
      "ẋ": 2620,
      "Ẏ": 2621,
      "ẏ": 2622,
      "Ẑ": 2623,
      "Ẓ": 2624,
      "ẓ": 2625,
      "ẕ": 2626,
      "ẖ": 2627,
      "ẗ": 2628,
      "ẟ": 2629,
      "ạ": 2630,
      "ả": 2631,
      "Ấ": 2632,
      "ấ": 2633,
      "Ầ": 2634,
      "ầ": 2635,
      "ẩ": 2636,
      "ẫ": 2637,
      "Ậ": 2638,
      "ậ": 2639,
      "ắ": 2640,
      "ằ": 2641,
      "ẳ": 2642,
      "ẵ": 2643,
      "ặ": 2644,
      "Ẹ": 2645,
      "ẹ": 2646,
      "ẻ": 2647,
      "ẽ": 2648,
      "Ế": 2649,
      "ế": 2650,
      "Ề": 2651,
      "ề": 2652,
      "ể": 2653,
      "Ễ": 2654,
      "ễ": 2655,
      "Ệ": 2656,
      "ệ": 2657,
      "Ỉ": 2658,
      "ỉ": 2659,
      "Ị": 2660,
      "ị": 2661,
      "Ọ": 2662,
      "ọ": 2663,
      "Ỏ": 2664,
      "ỏ": 2665,
      "ố": 2666,
      "ồ": 2667,
      "ổ": 2668,
      "ỗ": 2669,
      "Ộ": 2670,
      "ộ": 2671,
      "ớ": 2672,
      "ờ": 2673,
      "Ở": 2674,
      "ở": 2675,
      "ỡ": 2676,
      "ợ": 2677,
      "Ụ": 2678,
      "ụ": 2679,
      "Ủ": 2680,
      "ủ": 2681,
      "ứ": 2682,
      "ừ": 2683,
      "ử": 2684,
      "Ữ": 2685,
      "ữ": 2686,
      "ự": 2687,
      "Ỳ": 2688,
      "ỳ": 2689,
      "ỷ": 2690,
      "ỹ": 2691,
      "ἀ": 2692,
      "ἁ": 2693,
      "ἂ": 2694,
      "ἄ": 2695,
      "ἅ": 2696,
      "Ἀ": 2697,
      "Ἁ": 2698,
      "Ἄ": 2699,
      "ἐ": 2700,
      "ἑ": 2701,
      "ἔ": 2702,
      "ἕ": 2703,
      "Ἐ": 2704,
      "Ἑ": 2705,
      "Ἔ": 2706,
      "ἠ": 2707,
      "ἡ": 2708,
      "ἢ": 2709,
      "ἣ": 2710,
      "ἤ": 2711,
      "ἥ": 2712,
      "ἦ": 2713,
      "ἧ": 2714,
      "Ἠ": 2715,
      "Ἡ": 2716,
      "Ἥ": 2717,
      "ἰ": 2718,
      "ἱ": 2719,
      "ἲ": 2720,
      "ἳ": 2721,
      "ἴ": 2722,
      "ἵ": 2723,
      "ἶ": 2724,
      "ἷ": 2725,
      "Ἰ": 2726,
      "Ἳ": 2727,
      "Ἵ": 2728,
      "ὀ": 2729,
      "ὁ": 2730,
      "ὃ": 2731,
      "ὄ": 2732,
      "ὅ": 2733,
      "Ὀ": 2734,
      "Ὅ": 2735,
      "ὐ": 2736,
      "ὑ": 2737,
      "ὔ": 2738,
      "ὕ": 2739,
      "ὖ": 2740,
      "ὗ": 2741,
      "Ὑ": 2742,
      "Ὕ": 2743,
      "ὠ": 2744,
      "ὡ": 2745,
      "ὤ": 2746,
      "ὥ": 2747,
      "ὦ": 2748,
      "ὧ": 2749,
      "Ὠ": 2750,
      "ὰ": 2751,
      "ὲ": 2752,
      "ὴ": 2753,
      "ὶ": 2754,
      "ὸ": 2755,
      "ὺ": 2756,
      "ὼ": 2757,
      "ᾗ": 2758,
      "ᾠ": 2759,
      "ᾧ": 2760,
      "ᾳ": 2761,
      "ᾶ": 2762,
      "ᾷ": 2763,
      "᾽": 2764,
      "ῃ": 2765,
      "ῄ": 2766,
      "ῆ": 2767,
      "ῇ": 2768,
      "ῐ": 2769,
      "ῑ": 2770,
      "ῖ": 2771,
      "ῠ": 2772,
      "ῡ": 2773,
      "ῥ": 2774,
      "ῦ": 2775,
      "Ῥ": 2776,
      "ῳ": 2777,
      "ῶ": 2778,
      "ῷ": 2779,
      "῾": 2780,
      "​": 2781,
      "‌": 2782,
      "‍": 2783,
      "‎": 2784,
      "‏": 2785,
      "‐": 2786,
      "‑": 2787,
      "‒": 2788,
      "–": 2789,
      "—": 2790,
      "―": 2791,
      "‖": 2792,
      "‗": 2793,
      "‘": 2794,
      "’": 2795,
      "‚": 2796,
      "‛": 2797,
      "“": 2798,
      "”": 2799,
      "„": 2800,
      "‟": 2801,
      "†": 2802,
      "‡": 2803,
      "•": 2804,
      "‣": 2805,
      "․": 2806,
      "…": 2807,
      "‧": 2808,
      "‪": 2809,
      "‫": 2810,
      "‬": 2811,
      "‭": 2812,
      "‮": 2813,
      "‰": 2814,
      "′": 2815,
      "″": 2816,
      "‹": 2817,
      "›": 2818,
      "※": 2819,
      "‼": 2820,
      "‽": 2821,
      "‿": 2822,
      "⁃": 2823,
      "⁄": 2824,
      "⁉": 2825,
      "⁊": 2826,
      "⁋": 2827,
      "⁒": 2828,
      "⁕": 2829,
      "⁝": 2830,
      "⁠": 2831,
      "⁡": 2832,
      "⁢": 2833,
      "⁣": 2834,
      "⁦": 2835,
      "⁧": 2836,
      "⁩": 2837,
      "⁪": 2838,
      "⁬": 2839,
      "⁭": 2840,
      "⁰": 2841,
      "⁴": 2842,
      "⁵": 2843,
      "⁶": 2844,
      "⁷": 2845,
      "⁸": 2846,
      "⁹": 2847,
      "⁺": 2848,
      "⁻": 2849,
      "ⁿ": 2850,
      "₀": 2851,
      "₁": 2852,
      "₂": 2853,
      "₃": 2854,
      "₄": 2855,
      "₅": 2856,
      "₆": 2857,
      "₈": 2858,
      "₊": 2859,
      "₋": 2860,
      "ₒ": 2861,
      "ₓ": 2862,
      "ₖ": 2863,
      "ₘ": 2864,
      "ₙ": 2865,
      "₣": 2866,
      "₤": 2867,
      "₦": 2868,
      "₨": 2869,
      "₪": 2870,
      "€": 2871,
      "₮": 2872,
      "₴": 2873,
      "₵": 2874,
      "₸": 2875,
      "₹": 2876,
      "₽": 2877,
      "₿": 2878,
      "⃟": 2879,
      "⃣": 2880,
      "℃": 2881,
      "℅": 2882,
      "℉": 2883,
      "ℎ": 2884,
      "ℏ": 2885,
      "ℓ": 2886,
      "№": 2887,
      "℗": 2888,
      "ℛ": 2889,
      "ℝ": 2890,
      "℞": 2891,
      "℠": 2892,
      "™": 2893,
      "ℤ": 2894,
      "℧": 2895,
      "ℹ": 2896,
      "⅁": 2897,
      "ⅇ": 2898,
      "⅓": 2899,
      "⅔": 2900,
      "⅕": 2901,
      "⅘": 2902,
      "⅙": 2903,
      "⅚": 2904,
      "⅛": 2905,
      "⅜": 2906,
      "⅝": 2907,
      "⅞": 2908,
      "Ⅰ": 2909,
      "Ⅱ": 2910,
      "Ⅲ": 2911,
      "Ⅳ": 2912,
      "Ⅴ": 2913,
      "Ⅵ": 2914,
      "Ⅶ": 2915,
      "Ⅸ": 2916,
      "Ⅹ": 2917,
      "Ⅺ": 2918,
      "Ⅻ": 2919,
      "ⅰ": 2920,
      "ⅱ": 2921,
      "ⅲ": 2922,
      "Ↄ": 2923,
      "←": 2924,
      "↑": 2925,
      "→": 2926,
      "↓": 2927,
      "↔": 2928,
      "↖": 2929,
      "↗": 2930,
      "↙": 2931,
      "↥": 2932,
      "↦": 2933,
      "↧": 2934,
      "↩": 2935,
      "↪": 2936,
      "↬": 2937,
      "↰": 2938,
      "↳": 2939,
      "↵": 2940,
      "↷": 2941,
      "↹": 2942,
      "↺": 2943,
      "⇄": 2944,
      "⇆": 2945,
      "⇌": 2946,
      "⇏": 2947,
      "⇐": 2948,
      "⇑": 2949,
      "⇒": 2950,
      "⇓": 2951,
      "⇔": 2952,
      "⇛": 2953,
      "⇝": 2954,
      "⇟": 2955,
      "⇢": 2956,
      "⇣": 2957,
      "⇦": 2958,
      "⇧": 2959,
      "⇨": 2960,
      "⇩": 2961,
      "⇾": 2962,
      "∀": 2963,
      "∂": 2964,
      "∃": 2965,
      "∅": 2966,
      "∆": 2967,
      "∇": 2968,
      "∈": 2969,
      "∎": 2970,
      "∏": 2971,
      "∑": 2972,
      "−": 2973,
      "∓": 2974,
      "∕": 2975,
      "∗": 2976,
      "∘": 2977,
      "∙": 2978,
      "√": 2979,
      "∝": 2980,
      "∞": 2981,
      "∠": 2982,
      "∣": 2983,
      "∥": 2984,
      "∧": 2985,
      "∨": 2986,
      "∩": 2987,
      "∫": 2988,
      "∬": 2989,
      "∮": 2990,
      "∴": 2991,
      "∵": 2992,
      "∶": 2993,
      "∼": 2994,
      "≃": 2995,
      "≅": 2996,
      "≈": 2997,
      "≍": 2998,
      "≐": 2999,
      "≔": 3000,
      "≠": 3001,
      "≡": 3002,
      "≣": 3003,
      "≤": 3004,
      "≥": 3005,
      "≦": 3006,
      "≧": 3007,
      "≪": 3008,
      "≫": 3009,
      "≲": 3010,
      "≳": 3011,
      "≻": 3012,
      "⊂": 3013,
      "⊃": 3014,
      "⊄": 3015,
      "⊆": 3016,
      "⊕": 3017,
      "⊗": 3018,
      "⊙": 3019,
      "⊞": 3020,
      "⊢": 3021,
      "⊥": 3022,
      "⊿": 3023,
      "⋅": 3024,
      "⋆": 3025,
      "⋮": 3026,
      "⋯": 3027,
      "⌀": 3028,
      "⌃": 3029,
      "⌄": 3030,
      "⌉": 3031,
      "⌊": 3032,
      "⌐": 3033,
      "⌖": 3034,
      "⌘": 3035,
      "⌚": 3036,
      "⌛": 3037,
      "⌠": 3038,
      "⌥": 3039,
      "⍟": 3040,
      "⍴": 3041,
      "⍺": 3042,
      "⎆": 3043,
      "⎇": 3044,
      "⎈": 3045,
      "⎥": 3046,
      "⎦": 3047,
      "⎪": 3048,
      "⎯": 3049,
      "⎼": 3050,
      "⏎": 3051,
      "⏤": 3052,
      "⏩": 3053,
      "⏬": 3054,
      "⏭": 3055,
      "⏮": 3056,
      "⏯": 3057,
      "⏰": 3058,
      "⏱": 3059,
      "⏲": 3060,
      "⏳": 3061,
      "⏵": 3062,
      "⏷": 3063,
      "⏺": 3064,
      "␣": 3065,
      "①": 3066,
      "②": 3067,
      "③": 3068,
      "④": 3069,
      "⑤": 3070,
      "⑥": 3071,
      "⑦": 3072,
      "⑧": 3073,
      "⑨": 3074,
      "⑩": 3075,
      "⑴": 3076,
      "⑵": 3077,
      "⑶": 3078,
      "⑷": 3079,
      "⑸": 3080,
      "Ⓒ": 3081,
      "Ⓡ": 3082,
      "ⓒ": 3083,
      "ⓘ": 3084,
      "⓵": 3085,
      "⓶": 3086,
      "⓷": 3087,
      "⓸": 3088,
      "⓹": 3089,
      "⓺": 3090,
      "⓻": 3091,
      "⓼": 3092,
      "⓽": 3093,
      "⓾": 3094,
      "─": 3095,
      "━": 3096,
      "│": 3097,
      "┄": 3098,
      "┅": 3099,
      "┌": 3100,
      "┏": 3101,
      "┐": 3102,
      "┓": 3103,
      "└": 3104,
      "┘": 3105,
      "├": 3106,
      "┬": 3107,
      "┴": 3108,
      "═": 3109,
      "║": 3110,
      "╒": 3111,
      "╓": 3112,
      "╙": 3113,
      "╝": 3114,
      "╠": 3115,
      "╣": 3116,
      "▁": 3117,
      "█": 3118,
      "▌": 3119,
      "▍": 3120,
      "▏": 3121,
      "▐": 3122,
      "░": 3123,
      "▒": 3124,
      "▞": 3125,
      "■": 3126,
      "□": 3127,
      "▢": 3128,
      "▣": 3129,
      "▪": 3130,
      "▫": 3131,
      "▬": 3132,
      "▮": 3133,
      "▲": 3134,
      "△": 3135,
      "▴": 3136,
      "▶": 3137,
      "▷": 3138,
      "▸": 3139,
      "►": 3140,
      "▼": 3141,
      "▽": 3142,
      "▾": 3143,
      "◀": 3144,
      "◁": 3145,
      "◄": 3146,
      "◆": 3147,
      "◇": 3148,
      "◈": 3149,
      "◉": 3150,
      "◊": 3151,
      "○": 3152,
      "◌": 3153,
      "◎": 3154,
      "●": 3155,
      "◑": 3156,
      "◕": 3157,
      "◘": 3158,
      "◙": 3159,
      "◡": 3160,
      "◦": 3161,
      "◯": 3162,
      "◷": 3163,
      "◻": 3164,
      "◼": 3165,
      "◽": 3166,
      "◾": 3167,
      "☀": 3168,
      "☁": 3169,
      "☂": 3170,
      "☃": 3171,
      "☄": 3172,
      "★": 3173,
      "☆": 3174,
      "☉": 3175,
      "☍": 3176,
      "☎": 3177,
      "☏": 3178,
      "☐": 3179,
      "☑": 3180,
      "☒": 3181,
      "☓": 3182,
      "☔": 3183,
      "☕": 3184,
      "☘": 3185,
      "☙": 3186,
      "☚": 3187,
      "☛": 3188,
      "☜": 3189,
      "☝": 3190,
      "☞": 3191,
      "☟": 3192,
      "☠": 3193,
      "☢": 3194,
      "☣": 3195,
      "☤": 3196,
      "☩": 3197,
      "☪": 3198,
      "☬": 3199,
      "☭": 3200,
      "☮": 3201,
      "☯": 3202,
      "☰": 3203,
      "☵": 3204,
      "☷": 3205,
      "☹": 3206,
      "☺": 3207,
      "☻": 3208,
      "☼": 3209,
      "♀": 3210,
      "♁": 3211,
      "♂": 3212,
      "♈": 3213,
      "♉": 3214,
      "♊": 3215,
      "♋": 3216,
      "♌": 3217,
      "♍": 3218,
      "♎": 3219,
      "♏": 3220,
      "♐": 3221,
      "♑": 3222,
      "♒": 3223,
      "♓": 3224,
      "♔": 3225,
      "♕": 3226,
      "♖": 3227,
      "♗": 3228,
      "♘": 3229,
      "♙": 3230,
      "♛": 3231,
      "♜": 3232,
      "♟": 3233,
      "♠": 3234,
      "♡": 3235,
      "♣": 3236,
      "♤": 3237,
      "♥": 3238,
      "♦": 3239,
      "♧": 3240,
      "♨": 3241,
      "♩": 3242,
      "♪": 3243,
      "♫": 3244,
      "♬": 3245,
      "♭": 3246,
      "♮": 3247,
      "♯": 3248,
      "♰": 3249,
      "♳": 3250,
      "♴": 3251,
      "♵": 3252,
      "♻": 3253,
      "♾": 3254,
      "♿": 3255,
      "⚊": 3256,
      "⚒": 3257,
      "⚓": 3258,
      "⚔": 3259,
      "⚕": 3260,
      "⚖": 3261,
      "⚙": 3262,
      "⚛": 3263,
      "⚜": 3264,
      "⚝": 3265,
      "⚠": 3266,
      "⚡": 3267,
      "⚪": 3268,
      "⚫": 3269,
      "⚬": 3270,
      "⚰": 3271,
      "⚽": 3272,
      "⛄": 3273,
      "⛈": 3274,
      "⛑": 3275,
      "⛔": 3276,
      "⛤": 3277,
      "⛥": 3278,
      "⛪": 3279,
      "⛭": 3280,
      "⛲": 3281,
      "⛳": 3282,
      "⛽": 3283,
      "✂": 3284,
      "✅": 3285,
      "✆": 3286,
      "✈": 3287,
      "✉": 3288,
      "✊": 3289,
      "✋": 3290,
      "✌": 3291,
      "✍": 3292,
      "✎": 3293,
      "✏": 3294,
      "✒": 3295,
      "✓": 3296,
      "✔": 3297,
      "✕": 3298,
      "✖": 3299,
      "✗": 3300,
      "✘": 3301,
      "✚": 3302,
      "✝": 3303,
      "✠": 3304,
      "✡": 3305,
      "✤": 3306,
      "✦": 3307,
      "✧": 3308,
      "✨": 3309,
      "✩": 3310,
      "✪": 3311,
      "✭": 3312,
      "✮": 3313,
      "✰": 3314,
      "✳": 3315,
      "✴": 3316,
      "✶": 3317,
      "✸": 3318,
      "✺": 3319,
      "✻": 3320,
      "✼": 3321,
      "✽": 3322,
      "✿": 3323,
      "❀": 3324,
      "❁": 3325,
      "❂": 3326,
      "❃": 3327,
      "❄": 3328,
      "❇": 3329,
      "❉": 3330,
      "❋": 3331,
      "❌": 3332,
      "❍": 3333,
      "❏": 3334,
      "❐": 3335,
      "❑": 3336,
      "❒": 3337,
      "❓": 3338,
      "❖": 3339,
      "❗": 3340,
      "❘": 3341,
      "❛": 3342,
      "❜": 3343,
      "❝": 3344,
      "❞": 3345,
      "❡": 3346,
      "❣": 3347,
      "❤": 3348,
      "❥": 3349,
      "❦": 3350,
      "❧": 3351,
      "❮": 3352,
      "❯": 3353,
      "❱": 3354,
      "❶": 3355,
      "❷": 3356,
      "❸": 3357,
      "❹": 3358,
      "❺": 3359,
      "❻": 3360,
      "➀": 3361,
      "➁": 3362,
      "➂": 3363,
      "➊": 3364,
      "➋": 3365,
      "➌": 3366,
      "➍": 3367,
      "➎": 3368,
      "➏": 3369,
      "➐": 3370,
      "➑": 3371,
      "➒": 3372,
      "➓": 3373,
      "➔": 3374,
      "➕": 3375,
      "➖": 3376,
      "➙": 3377,
      "➛": 3378,
      "➜": 3379,
      "➝": 3380,
      "➞": 3381,
      "➟": 3382,
      "➠": 3383,
      "➡": 3384,
      "➢": 3385,
      "➣": 3386,
      "➤": 3387,
      "➥": 3388,
      "➦": 3389,
      "➧": 3390,
      "➨": 3391,
      "➩": 3392,
      "➪": 3393,
      "➫": 3394,
      "➭": 3395,
      "➲": 3396,
      "➵": 3397,
      "➸": 3398,
      "➺": 3399,
      "➽": 3400,
      "⟐": 3401,
      "⟨": 3402,
      "⟩": 3403,
      "⟪": 3404,
      "⟫": 3405,
      "⟵": 3406,
      "⟶": 3407,
      "⟹": 3408,
      "⟾": 3409,
      "⠀": 3410,
      "⠈": 3411,
      "⤆": 3412,
      "⤇": 3413,
      "⤴": 3414,
      "⤵": 3415,
      "⦁": 3416,
      "⦟": 3417,
      "⦾": 3418,
      "⦿": 3419,
      "⧉": 3420,
      "⧫": 3421,
      "⧭": 3422,
      "⧸": 3423,
      "⨁": 3424,
      "⨎": 3425,
      "⨯": 3426,
      "⩽": 3427,
      "⩾": 3428,
      "⪰": 3429,
      "⬅": 3430,
      "⬆": 3431,
      "⬇": 3432,
      "⬛": 3433,
      "⬜": 3434,
      "⬣": 3435,
      "⬤": 3436,
      "⭄": 3437,
      "⭆": 3438,
      "⭐": 3439,
      "⭕": 3440,
      "⮙": 3441,
      "⮚": 3442,
      "⮜": 3443,
      "⮞": 3444,
      "⯁": 3445,
      "ⱡ": 3446,
      "ⱱ": 3447,
      "Ⲁ": 3448,
      "ⲁ": 3449,
      "ⲏ": 3450,
      "ⲑ": 3451,
      "ⲓ": 3452,
      "ⲛ": 3453,
      "ⲥ": 3454,
      "ⲫ": 3455,
      "ⲱ": 3456,
      "Ⲹ": 3457,
      "Ⳁ": 3458,
      "Ⳡ": 3459,
      "ⴰ": 3460,
      "ⴱ": 3461,
      "ⴳ": 3462,
      "ⴷ": 3463,
      "ⴻ": 3464,
      "ⴼ": 3465,
      "ⴽ": 3466,
      "ⵉ": 3467,
      "ⵍ": 3468,
      "ⵎ": 3469,
      "ⵏ": 3470,
      "ⵓ": 3471,
      "ⵔ": 3472,
      "ⵕ": 3473,
      "ⵖ": 3474,
      "ⵗ": 3475,
      "ⵜ": 3476,
      "ⵝ": 3477,
      "ⵟ": 3478,
      "ⵡ": 3479,
      "ⵣ": 3480,
      "ⵥ": 3481,
      "⸱": 3482,
      "⸺": 3483,
      "⸻": 3484,
      "⸿": 3485,
      "⼀": 3486,
      "⼗": 3487,
      "⼠": 3488,
      "⾊": 3489,
      "⾟": 3490,
      "⾠": 3491,
      "、": 3492,
      "。": 3493,
      "々": 3494,
      "〇": 3495,
      "〈": 3496,
      "〉": 3497,
      "《": 3498,
      "》": 3499,
      "「": 3500,
      "」": 3501,
      "『": 3502,
      "』": 3503,
      "【": 3504,
      "】": 3505,
      "〒": 3506,
      "〔": 3507,
      "〕": 3508,
      "〖": 3509,
      "〗": 3510,
      "〜": 3511,
      "〝": 3512,
      "〞": 3513,
      "〽": 3514,
      "ぁ": 3515,
      "あ": 3516,
      "い": 3517,
      "う": 3518,
      "え": 3519,
      "お": 3520,
      "か": 3521,
      "が": 3522,
      "き": 3523,
      "ぎ": 3524,
      "く": 3525,
      "ぐ": 3526,
      "け": 3527,
      "げ": 3528,
      "こ": 3529,
      "ご": 3530,
      "さ": 3531,
      "ざ": 3532,
      "し": 3533,
      "じ": 3534,
      "す": 3535,
      "ず": 3536,
      "せ": 3537,
      "ぜ": 3538,
      "そ": 3539,
      "ぞ": 3540,
      "た": 3541,
      "だ": 3542,
      "ち": 3543,
      "っ": 3544,
      "つ": 3545,
      "づ": 3546,
      "て": 3547,
      "で": 3548,
      "と": 3549,
      "ど": 3550,
      "な": 3551,
      "に": 3552,
      "ね": 3553,
      "の": 3554,
      "は": 3555,
      "ば": 3556,
      "ぱ": 3557,
      "ひ": 3558,
      "び": 3559,
      "ふ": 3560,
      "ぶ": 3561,
      "へ": 3562,
      "べ": 3563,
      "ほ": 3564,
      "ぼ": 3565,
      "ま": 3566,
      "み": 3567,
      "む": 3568,
      "め": 3569,
      "も": 3570,
      "ゃ": 3571,
      "や": 3572,
      "ゅ": 3573,
      "ゆ": 3574,
      "ょ": 3575,
      "よ": 3576,
      "ら": 3577,
      "り": 3578,
      "る": 3579,
      "れ": 3580,
      "ろ": 3581,
      "わ": 3582,
      "ゑ": 3583,
      "を": 3584,
      "ん": 3585,
      "ァ": 3586,
      "ア": 3587,
      "ィ": 3588,
      "イ": 3589,
      "ゥ": 3590,
      "ウ": 3591,
      "ェ": 3592,
      "エ": 3593,
      "ォ": 3594,
      "オ": 3595,
      "カ": 3596,
      "ガ": 3597,
      "キ": 3598,
      "ギ": 3599,
      "ク": 3600,
      "グ": 3601,
      "ケ": 3602,
      "ゲ": 3603,
      "コ": 3604,
      "ゴ": 3605,
      "サ": 3606,
      "ザ": 3607,
      "シ": 3608,
      "ジ": 3609,
      "ス": 3610,
      "ズ": 3611,
      "セ": 3612,
      "ゼ": 3613,
      "ソ": 3614,
      "タ": 3615,
      "ダ": 3616,
      "チ": 3617,
      "ッ": 3618,
      "ツ": 3619,
      "テ": 3620,
      "デ": 3621,
      "ト": 3622,
      "ド": 3623,
      "ナ": 3624,
      "ニ": 3625,
      "ヌ": 3626,
      "ネ": 3627,
      "ノ": 3628,
      "ハ": 3629,
      "バ": 3630,
      "パ": 3631,
      "ヒ": 3632,
      "ビ": 3633,
      "ピ": 3634,
      "フ": 3635,
      "ブ": 3636,
      "プ": 3637,
      "ヘ": 3638,
      "ベ": 3639,
      "ペ": 3640,
      "ホ": 3641,
      "ボ": 3642,
      "ポ": 3643,
      "マ": 3644,
      "ミ": 3645,
      "ム": 3646,
      "メ": 3647,
      "モ": 3648,
      "ャ": 3649,
      "ヤ": 3650,
      "ュ": 3651,
      "ョ": 3652,
      "ヨ": 3653,
      "ラ": 3654,
      "リ": 3655,
      "ル": 3656,
      "レ": 3657,
      "ロ": 3658,
      "ワ": 3659,
      "ン": 3660,
      "ヴ": 3661,
      "ヶ": 3662,
      "・": 3663,
      "ー": 3664,
      "ㄚ": 3665,
      "ㄛ": 3666,
      "ㄴ": 3667,
      "ㅂ": 3668,
      "ㅎ": 3669,
      "ㅏ": 3670,
      "ㇲ": 3671,
      "㎅": 3672,
      "㎍": 3673,
      "㎎": 3674,
      "㎏": 3675,
      "㎖": 3676,
      "㎛": 3677,
      "㎡": 3678,
      "㎥": 3679,
      "㯠": 3680,
      "㾶": 3681,
      "㾻": 3682,
      "一": 3683,
      "丁": 3684,
      "七": 3685,
      "万": 3686,
      "丈": 3687,
      "三": 3688,
      "上": 3689,
      "下": 3690,
      "不": 3691,
      "与": 3692,
      "丑": 3693,
      "专": 3694,
      "且": 3695,
      "丕": 3696,
      "世": 3697,
      "丘": 3698,
      "丙": 3699,
      "业": 3700,
      "丛": 3701,
      "东": 3702,
      "丝": 3703,
      "両": 3704,
      "两": 3705,
      "严": 3706,
      "並": 3707,
      "丨": 3708,
      "个": 3709,
      "中": 3710,
      "丰": 3711,
      "串": 3712,
      "临": 3713,
      "丷": 3714,
      "丸": 3715,
      "丹": 3716,
      "为": 3717,
      "主": 3718,
      "丽": 3719,
      "举": 3720,
      "乀": 3721,
      "乃": 3722,
      "久": 3723,
      "么": 3724,
      "义": 3725,
      "之": 3726,
      "乌": 3727,
      "乏": 3728,
      "乐": 3729,
      "乔": 3730,
      "乗": 3731,
      "乘": 3732,
      "乙": 3733,
      "九": 3734,
      "也": 3735,
      "习": 3736,
      "乡": 3737,
      "书": 3738,
      "乩": 3739,
      "买": 3740,
      "乱": 3741,
      "乳": 3742,
      "亀": 3743,
      "亂": 3744,
      "了": 3745,
      "予": 3746,
      "争": 3747,
      "事": 3748,
      "二": 3749,
      "于": 3750,
      "云": 3751,
      "互": 3752,
      "五": 3753,
      "井": 3754,
      "亚": 3755,
      "些": 3756,
      "亜": 3757,
      "亞": 3758,
      "交": 3759,
      "产": 3760,
      "享": 3761,
      "京": 3762,
      "亭": 3763,
      "亮": 3764,
      "亲": 3765,
      "人": 3766,
      "亻": 3767,
      "亿": 3768,
      "什": 3769,
      "仁": 3770,
      "仅": 3771,
      "仆": 3772,
      "仇": 3773,
      "今": 3774,
      "介": 3775,
      "仍": 3776,
      "从": 3777,
      "仏": 3778,
      "仑": 3779,
      "仓": 3780,
      "仔": 3781,
      "仕": 3782,
      "他": 3783,
      "仗": 3784,
      "付": 3785,
      "仙": 3786,
      "代": 3787,
      "令": 3788,
      "以": 3789,
      "仪": 3790,
      "们": 3791,
      "仮": 3792,
      "仰": 3793,
      "仲": 3794,
      "件": 3795,
      "价": 3796,
      "任": 3797,
      "份": 3798,
      "企": 3799,
      "伊": 3800,
      "伍": 3801,
      "伎": 3802,
      "伏": 3803,
      "伐": 3804,
      "休": 3805,
      "优": 3806,
      "伙": 3807,
      "会": 3808,
      "伝": 3809,
      "伟": 3810,
      "传": 3811,
      "伤": 3812,
      "伦": 3813,
      "伯": 3814,
      "估": 3815,
      "伴": 3816,
      "伸": 3817,
      "似": 3818,
      "伽": 3819,
      "但": 3820,
      "佈": 3821,
      "位": 3822,
      "低": 3823,
      "住": 3824,
      "佐": 3825,
      "佑": 3826,
      "体": 3827,
      "何": 3828,
      "佘": 3829,
      "余": 3830,
      "佛": 3831,
      "作": 3832,
      "你": 3833,
      "佣": 3834,
      "佳": 3835,
      "使": 3836,
      "來": 3837,
      "例": 3838,
      "侍": 3839,
      "侘": 3840,
      "供": 3841,
      "依": 3842,
      "価": 3843,
      "侧": 3844,
      "侮": 3845,
      "侯": 3846,
      "侵": 3847,
      "便": 3848,
      "係": 3849,
      "俄": 3850,
      "俊": 3851,
      "俗": 3852,
      "保": 3853,
      "信": 3854,
      "修": 3855,
      "俯": 3856,
      "俺": 3857,
      "倉": 3858,
      "個": 3859,
      "倍": 3860,
      "們": 3861,
      "倒": 3862,
      "候": 3863,
      "借": 3864,
      "倡": 3865,
      "倫": 3866,
      "倭": 3867,
      "债": 3868,
      "值": 3869,
      "倾": 3870,
      "假": 3871,
      "偉": 3872,
      "偏": 3873,
      "做": 3874,
      "停": 3875,
      "健": 3876,
      "偵": 3877,
      "偽": 3878,
      "傈": 3879,
      "傘": 3880,
      "備": 3881,
      "储": 3882,
      "傳": 3883,
      "傷": 3884,
      "僊": 3885,
      "像": 3886,
      "僕": 3887,
      "僚": 3888,
      "僧": 3889,
      "僳": 3890,
      "價": 3891,
      "儀": 3892,
      "儒": 3893,
      "償": 3894,
      "優": 3895,
      "儿": 3896,
      "兀": 3897,
      "元": 3898,
      "兄": 3899,
      "充": 3900,
      "兆": 3901,
      "先": 3902,
      "光": 3903,
      "克": 3904,
      "免": 3905,
      "児": 3906,
      "兒": 3907,
      "兔": 3908,
      "党": 3909,
      "入": 3910,
      "內": 3911,
      "全": 3912,
      "兩": 3913,
      "八": 3914,
      "公": 3915,
      "六": 3916,
      "兰": 3917,
      "共": 3918,
      "关": 3919,
      "兴": 3920,
      "兵": 3921,
      "其": 3922,
      "具": 3923,
      "典": 3924,
      "兼": 3925,
      "内": 3926,
      "円": 3927,
      "冈": 3928,
      "冊": 3929,
      "册": 3930,
      "再": 3931,
      "冒": 3932,
      "冗": 3933,
      "写": 3934,
      "军": 3935,
      "农": 3936,
      "冠": 3937,
      "冨": 3938,
      "冬": 3939,
      "冯": 3940,
      "冰": 3941,
      "冲": 3942,
      "决": 3943,
      "况": 3944,
      "冶": 3945,
      "冷": 3946,
      "冻": 3947,
      "净": 3948,
      "准": 3949,
      "凋": 3950,
      "凌": 3951,
      "减": 3952,
      "凝": 3953,
      "几": 3954,
      "凤": 3955,
      "処": 3956,
      "凫": 3957,
      "凰": 3958,
      "凱": 3959,
      "出": 3960,
      "击": 3961,
      "刀": 3962,
      "分": 3963,
      "切": 3964,
      "刈": 3965,
      "刊": 3966,
      "刑": 3967,
      "划": 3968,
      "列": 3969,
      "刘": 3970,
      "则": 3971,
      "刚": 3972,
      "创": 3973,
      "初": 3974,
      "删": 3975,
      "判": 3976,
      "別": 3977,
      "利": 3978,
      "别": 3979,
      "到": 3980,
      "制": 3981,
      "刷": 3982,
      "券": 3983,
      "刹": 3984,
      "刺": 3985,
      "刻": 3986,
      "則": 3987,
      "削": 3988,
      "前": 3989,
      "剑": 3990,
      "剛": 3991,
      "剣": 3992,
      "剧": 3993,
      "副": 3994,
      "創": 3995,
      "劃": 3996,
      "劇": 3997,
      "劉": 3998,
      "劍": 3999,
      "劑": 4000,
      "劔": 4001,
      "力": 4002,
      "办": 4003,
      "功": 4004,
      "加": 4005,
      "务": 4006,
      "劣": 4007,
      "动": 4008,
      "助": 4009,
      "努": 4010,
      "劫": 4011,
      "励": 4012,
      "劳": 4013,
      "効": 4014,
      "势": 4015,
      "勁": 4016,
      "勃": 4017,
      "勇": 4018,
      "勉": 4019,
      "勒": 4020,
      "動": 4021,
      "務": 4022,
      "勝": 4023,
      "勞": 4024,
      "募": 4025,
      "勢": 4026,
      "勤": 4027,
      "勵": 4028,
      "勸": 4029,
      "勺": 4030,
      "勾": 4031,
      "包": 4032,
      "匈": 4033,
      "化": 4034,
      "北": 4035,
      "匙": 4036,
      "匚": 4037,
      "匠": 4038,
      "匹": 4039,
      "区": 4040,
      "医": 4041,
      "區": 4042,
      "十": 4043,
      "千": 4044,
      "升": 4045,
      "午": 4046,
      "半": 4047,
      "华": 4048,
      "协": 4049,
      "卐": 4050,
      "卑": 4051,
      "卓": 4052,
      "協": 4053,
      "单": 4054,
      "卖": 4055,
      "南": 4056,
      "単": 4057,
      "博": 4058,
      "卜": 4059,
      "占": 4060,
      "卡": 4061,
      "卢": 4062,
      "卦": 4063,
      "卧": 4064,
      "卫": 4065,
      "印": 4066,
      "危": 4067,
      "即": 4068,
      "却": 4069,
      "卵": 4070,
      "卷": 4071,
      "卸": 4072,
      "卻": 4073,
      "厂": 4074,
      "厄": 4075,
      "历": 4076,
      "压": 4077,
      "厘": 4078,
      "厚": 4079,
      "原": 4080,
      "厦": 4081,
      "厳": 4082,
      "去": 4083,
      "县": 4084,
      "参": 4085,
      "參": 4086,
      "又": 4087,
      "及": 4088,
      "友": 4089,
      "双": 4090,
      "反": 4091,
      "収": 4092,
      "发": 4093,
      "取": 4094,
      "受": 4095,
      "变": 4096,
      "叠": 4097,
      "叡": 4098,
      "口": 4099,
      "古": 4100,
      "句": 4101,
      "另": 4102,
      "只": 4103,
      "叫": 4104,
      "召": 4105,
      "可": 4106,
      "台": 4107,
      "史": 4108,
      "右": 4109,
      "叶": 4110,
      "号": 4111,
      "司": 4112,
      "吃": 4113,
      "各": 4114,
      "合": 4115,
      "吉": 4116,
      "同": 4117,
      "名": 4118,
      "后": 4119,
      "吐": 4120,
      "向": 4121,
      "吕": 4122,
      "吗": 4123,
      "君": 4124,
      "吞": 4125,
      "否": 4126,
      "含": 4127,
      "听": 4128,
      "启": 4129,
      "吵": 4130,
      "吸": 4131,
      "吹": 4132,
      "吻": 4133,
      "吼": 4134,
      "吾": 4135,
      "呂": 4136,
      "呈": 4137,
      "呉": 4138,
      "告": 4139,
      "员": 4140,
      "呢": 4141,
      "呦": 4142,
      "周": 4143,
      "味": 4144,
      "呼": 4145,
      "命": 4146,
      "和": 4147,
      "咒": 4148,
      "咖": 4149,
      "咨": 4150,
      "咱": 4151,
      "咳": 4152,
      "咸": 4153,
      "品": 4154,
      "哈": 4155,
      "响": 4156,
      "員": 4157,
      "哥": 4158,
      "哩": 4159,
      "哪": 4160,
      "哭": 4161,
      "哲": 4162,
      "哺": 4163,
      "唄": 4164,
      "唇": 4165,
      "唐": 4166,
      "售": 4167,
      "唯": 4168,
      "唱": 4169,
      "商": 4170,
      "啊": 4171,
      "問": 4172,
      "啓": 4173,
      "啖": 4174,
      "啞": 4175,
      "啟": 4176,
      "啡": 4177,
      "啤": 4178,
      "喀": 4179,
      "善": 4180,
      "喇": 4181,
      "喉": 4182,
      "喊": 4183,
      "喜": 4184,
      "喝": 4185,
      "喪": 4186,
      "喫": 4187,
      "喬": 4188,
      "單": 4189,
      "営": 4190,
      "喷": 4191,
      "嗎": 4192,
      "嗽": 4193,
      "嘉": 4194,
      "嘛": 4195,
      "器": 4196,
      "噬": 4197,
      "噴": 4198,
      "噶": 4199,
      "嚇": 4200,
      "嚎": 4201,
      "嚨": 4202,
      "囊": 4203,
      "四": 4204,
      "回": 4205,
      "因": 4206,
      "团": 4207,
      "団": 4208,
      "园": 4209,
      "困": 4210,
      "図": 4211,
      "围": 4212,
      "固": 4213,
      "国": 4214,
      "图": 4215,
      "圆": 4216,
      "國": 4217,
      "園": 4218,
      "圓": 4219,
      "圖": 4220,
      "團": 4221,
      "土": 4222,
      "圣": 4223,
      "在": 4224,
      "地": 4225,
      "场": 4226,
      "圾": 4227,
      "址": 4228,
      "坂": 4229,
      "均": 4230,
      "坊": 4231,
      "坎": 4232,
      "坐": 4233,
      "坚": 4234,
      "坛": 4235,
      "坝": 4236,
      "坡": 4237,
      "坤": 4238,
      "坦": 4239,
      "垃": 4240,
      "型": 4241,
      "垒": 4242,
      "埃": 4243,
      "埋": 4244,
      "城": 4245,
      "域": 4246,
      "培": 4247,
      "基": 4248,
      "堂": 4249,
      "堅": 4250,
      "堡": 4251,
      "堪": 4252,
      "報": 4253,
      "場": 4254,
      "塊": 4255,
      "塌": 4256,
      "塑": 4257,
      "塔": 4258,
      "塗": 4259,
      "塚": 4260,
      "塞": 4261,
      "填": 4262,
      "塰": 4263,
      "境": 4264,
      "墅": 4265,
      "増": 4266,
      "墙": 4267,
      "墜": 4268,
      "增": 4269,
      "墨": 4270,
      "墳": 4271,
      "壁": 4272,
      "壇": 4273,
      "壞": 4274,
      "士": 4275,
      "壮": 4276,
      "声": 4277,
      "壽": 4278,
      "处": 4279,
      "备": 4280,
      "変": 4281,
      "复": 4282,
      "夏": 4283,
      "夕": 4284,
      "外": 4285,
      "多": 4286,
      "夜": 4287,
      "够": 4288,
      "夠": 4289,
      "大": 4290,
      "天": 4291,
      "太": 4292,
      "夫": 4293,
      "央": 4294,
      "失": 4295,
      "头": 4296,
      "夷": 4297,
      "夹": 4298,
      "奇": 4299,
      "奈": 4300,
      "奋": 4301,
      "奎": 4302,
      "奖": 4303,
      "套": 4304,
      "奠": 4305,
      "奥": 4306,
      "奪": 4307,
      "女": 4308,
      "奴": 4309,
      "奶": 4310,
      "她": 4311,
      "好": 4312,
      "如": 4313,
      "妃": 4314,
      "妈": 4315,
      "妙": 4316,
      "妝": 4317,
      "妨": 4318,
      "妳": 4319,
      "妹": 4320,
      "妻": 4321,
      "姆": 4322,
      "始": 4323,
      "姐": 4324,
      "姑": 4325,
      "姒": 4326,
      "姓": 4327,
      "委": 4328,
      "姚": 4329,
      "姜": 4330,
      "姬": 4331,
      "姻": 4332,
      "威": 4333,
      "娘": 4334,
      "娛": 4335,
      "娶": 4336,
      "婆": 4337,
      "婚": 4338,
      "婦": 4339,
      "媛": 4340,
      "媽": 4341,
      "嫌": 4342,
      "嬴": 4343,
      "子": 4344,
      "字": 4345,
      "存": 4346,
      "孙": 4347,
      "孛": 4348,
      "孝": 4349,
      "孟": 4350,
      "季": 4351,
      "孤": 4352,
      "学": 4353,
      "孩": 4354,
      "孫": 4355,
      "學": 4356,
      "孺": 4357,
      "宁": 4358,
      "它": 4359,
      "宇": 4360,
      "守": 4361,
      "安": 4362,
      "宋": 4363,
      "完": 4364,
      "宗": 4365,
      "官": 4366,
      "宙": 4367,
      "定": 4368,
      "宜": 4369,
      "宝": 4370,
      "实": 4371,
      "実": 4372,
      "客": 4373,
      "宣": 4374,
      "室": 4375,
      "宫": 4376,
      "宮": 4377,
      "害": 4378,
      "家": 4379,
      "容": 4380,
      "宽": 4381,
      "宾": 4382,
      "宿": 4383,
      "寂": 4384,
      "寄": 4385,
      "寅": 4386,
      "密": 4387,
      "富": 4388,
      "寓": 4389,
      "寛": 4390,
      "寝": 4391,
      "察": 4392,
      "寡": 4393,
      "實": 4394,
      "寧": 4395,
      "寨": 4396,
      "審": 4397,
      "寫": 4398,
      "寬": 4399,
      "寯": 4400,
      "寶": 4401,
      "寸": 4402,
      "对": 4403,
      "寺": 4404,
      "寻": 4405,
      "导": 4406,
      "対": 4407,
      "寿": 4408,
      "封": 4409,
      "専": 4410,
      "射": 4411,
      "将": 4412,
      "將": 4413,
      "專": 4414,
      "尉": 4415,
      "尊": 4416,
      "尋": 4417,
      "對": 4418,
      "導": 4419,
      "小": 4420,
      "少": 4421,
      "尔": 4422,
      "尘": 4423,
      "尚": 4424,
      "尤": 4425,
      "就": 4426,
      "尺": 4427,
      "尼": 4428,
      "尽": 4429,
      "尾": 4430,
      "尿": 4431,
      "局": 4432,
      "层": 4433,
      "居": 4434,
      "屈": 4435,
      "届": 4436,
      "屋": 4437,
      "屌": 4438,
      "屏": 4439,
      "屐": 4440,
      "展": 4441,
      "属": 4442,
      "屠": 4443,
      "層": 4444,
      "履": 4445,
      "山": 4446,
      "屹": 4447,
      "岁": 4448,
      "岐": 4449,
      "岗": 4450,
      "岛": 4451,
      "岡": 4452,
      "岩": 4453,
      "岳": 4454,
      "岸": 4455,
      "峇": 4456,
      "峡": 4457,
      "峨": 4458,
      "峯": 4459,
      "峰": 4460,
      "島": 4461,
      "崇": 4462,
      "崎": 4463,
      "崔": 4464,
      "崩": 4465,
      "嵯": 4466,
      "嶺": 4467,
      "巌": 4468,
      "川": 4469,
      "州": 4470,
      "巡": 4471,
      "工": 4472,
      "左": 4473,
      "巧": 4474,
      "巨": 4475,
      "巩": 4476,
      "差": 4477,
      "己": 4478,
      "已": 4479,
      "巴": 4480,
      "巷": 4481,
      "巻": 4482,
      "巽": 4483,
      "巾": 4484,
      "币": 4485,
      "市": 4486,
      "布": 4487,
      "师": 4488,
      "希": 4489,
      "帐": 4490,
      "帘": 4491,
      "帛": 4492,
      "帝": 4493,
      "带": 4494,
      "帧": 4495,
      "師": 4496,
      "席": 4497,
      "帮": 4498,
      "帯": 4499,
      "帳": 4500,
      "帶": 4501,
      "常": 4502,
      "幅": 4503,
      "幌": 4504,
      "幕": 4505,
      "幡": 4506,
      "幢": 4507,
      "幣": 4508,
      "干": 4509,
      "平": 4510,
      "年": 4511,
      "并": 4512,
      "幸": 4513,
      "幹": 4514,
      "幼": 4515,
      "幽": 4516,
      "幾": 4517,
      "广": 4518,
      "庁": 4519,
      "広": 4520,
      "庄": 4521,
      "庆": 4522,
      "庇": 4523,
      "床": 4524,
      "序": 4525,
      "庐": 4526,
      "库": 4527,
      "应": 4528,
      "底": 4529,
      "店": 4530,
      "府": 4531,
      "废": 4532,
      "度": 4533,
      "座": 4534,
      "庫": 4535,
      "庭": 4536,
      "庵": 4537,
      "庶": 4538,
      "康": 4539,
      "庸": 4540,
      "廈": 4541,
      "廉": 4542,
      "廊": 4543,
      "廐": 4544,
      "廓": 4545,
      "廖": 4546,
      "廠": 4547,
      "廢": 4548,
      "廣": 4549,
      "廴": 4550,
      "延": 4551,
      "建": 4552,
      "开": 4553,
      "弁": 4554,
      "异": 4555,
      "弄": 4556,
      "弊": 4557,
      "式": 4558,
      "弓": 4559,
      "引": 4560,
      "弗": 4561,
      "弘": 4562,
      "弟": 4563,
      "张": 4564,
      "弥": 4565,
      "弦": 4566,
      "弱": 4567,
      "張": 4568,
      "強": 4569,
      "弹": 4570,
      "强": 4571,
      "弼": 4572,
      "彌": 4573,
      "归": 4574,
      "当": 4575,
      "录": 4576,
      "彗": 4577,
      "彙": 4578,
      "形": 4579,
      "彦": 4580,
      "彩": 4581,
      "彪": 4582,
      "彫": 4583,
      "彬": 4584,
      "彭": 4585,
      "彰": 4586,
      "影": 4587,
      "彼": 4588,
      "往": 4589,
      "征": 4590,
      "径": 4591,
      "待": 4592,
      "很": 4593,
      "律": 4594,
      "後": 4595,
      "徐": 4596,
      "徒": 4597,
      "得": 4598,
      "從": 4599,
      "御": 4600,
      "復": 4601,
      "循": 4602,
      "微": 4603,
      "徳": 4604,
      "徵": 4605,
      "德": 4606,
      "心": 4607,
      "必": 4608,
      "忆": 4609,
      "忌": 4610,
      "忍": 4611,
      "忏": 4612,
      "志": 4613,
      "忘": 4614,
      "忙": 4615,
      "応": 4616,
      "忠": 4617,
      "忧": 4618,
      "快": 4619,
      "念": 4620,
      "怀": 4621,
      "态": 4622,
      "怎": 4623,
      "怕": 4624,
      "怜": 4625,
      "思": 4626,
      "怡": 4627,
      "急": 4628,
      "性": 4629,
      "怨": 4630,
      "怪": 4631,
      "总": 4632,
      "恆": 4633,
      "恋": 4634,
      "恐": 4635,
      "恒": 4636,
      "恕": 4637,
      "恨": 4638,
      "恩": 4639,
      "恭": 4640,
      "息": 4641,
      "恵": 4642,
      "恶": 4643,
      "恺": 4644,
      "悅": 4645,
      "悉": 4646,
      "悔": 4647,
      "悟": 4648,
      "悠": 4649,
      "患": 4650,
      "您": 4651,
      "悩": 4652,
      "悪": 4653,
      "悯": 4654,
      "悲": 4655,
      "情": 4656,
      "惑": 4657,
      "惜": 4658,
      "惟": 4659,
      "惠": 4660,
      "惡": 4661,
      "惨": 4662,
      "惩": 4663,
      "想": 4664,
      "愉": 4665,
      "意": 4666,
      "愚": 4667,
      "愛": 4668,
      "感": 4669,
      "愿": 4670,
      "慈": 4671,
      "態": 4672,
      "慎": 4673,
      "慢": 4674,
      "慣": 4675,
      "慧": 4676,
      "慮": 4677,
      "慶": 4678,
      "憐": 4679,
      "憑": 4680,
      "憶": 4681,
      "憾": 4682,
      "懂": 4683,
      "應": 4684,
      "懐": 4685,
      "懷": 4686,
      "懸": 4687,
      "懺": 4688,
      "戀": 4689,
      "戈": 4690,
      "戏": 4691,
      "成": 4692,
      "我": 4693,
      "戒": 4694,
      "或": 4695,
      "战": 4696,
      "戚": 4697,
      "戦": 4698,
      "截": 4699,
      "戰": 4700,
      "戲": 4701,
      "戴": 4702,
      "戶": 4703,
      "户": 4704,
      "戸": 4705,
      "房": 4706,
      "所": 4707,
      "手": 4708,
      "扌": 4709,
      "才": 4710,
      "扎": 4711,
      "扑": 4712,
      "打": 4713,
      "扔": 4714,
      "払": 4715,
      "托": 4716,
      "扛": 4717,
      "扣": 4718,
      "执": 4719,
      "扫": 4720,
      "扬": 4721,
      "扮": 4722,
      "扶": 4723,
      "批": 4724,
      "找": 4725,
      "承": 4726,
      "技": 4727,
      "把": 4728,
      "抎": 4729,
      "抑": 4730,
      "投": 4731,
      "抗": 4732,
      "折": 4733,
      "抛": 4734,
      "抜": 4735,
      "択": 4736,
      "抣": 4737,
      "护": 4738,
      "报": 4739,
      "抦": 4740,
      "抯": 4741,
      "抱": 4742,
      "抵": 4743,
      "抹": 4744,
      "押": 4745,
      "抽": 4746,
      "拄": 4747,
      "担": 4748,
      "拆": 4749,
      "拉": 4750,
      "拍": 4751,
      "拐": 4752,
      "拒": 4753,
      "招": 4754,
      "拜": 4755,
      "拟": 4756,
      "拣": 4757,
      "拥": 4758,
      "拧": 4759,
      "拨": 4760,
      "择": 4761,
      "括": 4762,
      "拳": 4763,
      "拾": 4764,
      "拿": 4765,
      "持": 4766,
      "指": 4767,
      "按": 4768,
      "挑": 4769,
      "挞": 4770,
      "挤": 4771,
      "挥": 4772,
      "挨": 4773,
      "振": 4774,
      "挺": 4775,
      "捉": 4776,
      "捌": 4777,
      "捕": 4778,
      "损": 4779,
      "换": 4780,
      "捨": 4781,
      "据": 4782,
      "捲": 4783,
      "捶": 4784,
      "捷": 4785,
      "捺": 4786,
      "掃": 4787,
      "授": 4788,
      "掉": 4789,
      "排": 4790,
      "掛": 4791,
      "掠": 4792,
      "採": 4793,
      "探": 4794,
      "接": 4795,
      "控": 4796,
      "推": 4797,
      "措": 4798,
      "描": 4799,
      "提": 4800,
      "插": 4801,
      "揚": 4802,
      "換": 4803,
      "握": 4804,
      "援": 4805,
      "搉": 4806,
      "損": 4807,
      "搏": 4808,
      "搐": 4809,
      "搓": 4810,
      "搖": 4811,
      "搜": 4812,
      "搬": 4813,
      "搭": 4814,
      "搶": 4815,
      "摂": 4816,
      "摄": 4817,
      "摔": 4818,
      "摘": 4819,
      "摩": 4820,
      "摸": 4821,
      "摺": 4822,
      "撇": 4823,
      "撒": 4824,
      "撤": 4825,
      "撥": 4826,
      "播": 4827,
      "撰": 4828,
      "擁": 4829,
      "擂": 4830,
      "擇": 4831,
      "擊": 4832,
      "操": 4833,
      "擒": 4834,
      "據": 4835,
      "擦": 4836,
      "擬": 4837,
      "擴": 4838,
      "支": 4839,
      "收": 4840,
      "改": 4841,
      "攻": 4842,
      "放": 4843,
      "政": 4844,
      "故": 4845,
      "效": 4846,
      "敎": 4847,
      "救": 4848,
      "敗": 4849,
      "教": 4850,
      "敝": 4851,
      "散": 4852,
      "敦": 4853,
      "敬": 4854,
      "数": 4855,
      "整": 4856,
      "敵": 4857,
      "數": 4858,
      "文": 4859,
      "斌": 4860,
      "斎": 4861,
      "斑": 4862,
      "斗": 4863,
      "料": 4864,
      "斜": 4865,
      "斤": 4866,
      "斬": 4867,
      "断": 4868,
      "斯": 4869,
      "新": 4870,
      "方": 4871,
      "於": 4872,
      "施": 4873,
      "旅": 4874,
      "旋": 4875,
      "族": 4876,
      "无": 4877,
      "既": 4878,
      "日": 4879,
      "旦": 4880,
      "旧": 4881,
      "旨": 4882,
      "早": 4883,
      "旭": 4884,
      "时": 4885,
      "昂": 4886,
      "昆": 4887,
      "昌": 4888,
      "明": 4889,
      "易": 4890,
      "昔": 4891,
      "昙": 4892,
      "星": 4893,
      "映": 4894,
      "春": 4895,
      "昨": 4896,
      "昭": 4897,
      "是": 4898,
      "昱": 4899,
      "显": 4900,
      "時": 4901,
      "晃": 4902,
      "晉": 4903,
      "晋": 4904,
      "晒": 4905,
      "晓": 4906,
      "晖": 4907,
      "晚": 4908,
      "晨": 4909,
      "普": 4910,
      "景": 4911,
      "晴": 4912,
      "晶": 4913,
      "智": 4914,
      "暁": 4915,
      "暂": 4916,
      "暑": 4917,
      "暖": 4918,
      "暗": 4919,
      "暮": 4920,
      "暴": 4921,
      "曇": 4922,
      "曖": 4923,
      "曙": 4924,
      "曜": 4925,
      "曰": 4926,
      "曲": 4927,
      "更": 4928,
      "書": 4929,
      "曹": 4930,
      "曼": 4931,
      "曾": 4932,
      "替": 4933,
      "最": 4934,
      "會": 4935,
      "月": 4936,
      "有": 4937,
      "朋": 4938,
      "服": 4939,
      "朕": 4940,
      "朗": 4941,
      "望": 4942,
      "朝": 4943,
      "期": 4944,
      "木": 4945,
      "未": 4946,
      "末": 4947,
      "本": 4948,
      "札": 4949,
      "朮": 4950,
      "术": 4951,
      "朱": 4952,
      "朵": 4953,
      "机": 4954,
      "杀": 4955,
      "杂": 4956,
      "权": 4957,
      "李": 4958,
      "材": 4959,
      "村": 4960,
      "杖": 4961,
      "杜": 4962,
      "束": 4963,
      "条": 4964,
      "来": 4965,
      "杨": 4966,
      "杭": 4967,
      "杯": 4968,
      "杰": 4969,
      "東": 4970,
      "杵": 4971,
      "松": 4972,
      "板": 4973,
      "极": 4974,
      "构": 4975,
      "析": 4976,
      "枕": 4977,
      "林": 4978,
      "枚": 4979,
      "果": 4980,
      "枝": 4981,
      "枢": 4982,
      "枪": 4983,
      "架": 4984,
      "柄": 4985,
      "柏": 4986,
      "某": 4987,
      "柑": 4988,
      "染": 4989,
      "柔": 4990,
      "查": 4991,
      "柱": 4992,
      "柳": 4993,
      "査": 4994,
      "柿": 4995,
      "栃": 4996,
      "栄": 4997,
      "标": 4998,
      "栋": 4999,
      "栏": 5000,
      "树": 5001,
      "栗": 5002,
      "校": 5003,
      "株": 5004,
      "样": 5005,
      "核": 5006,
      "根": 5007,
      "格": 5008,
      "桂": 5009,
      "案": 5010,
      "桉": 5011,
      "桑": 5012,
      "桓": 5013,
      "桔": 5014,
      "桜": 5015,
      "档": 5016,
      "桥": 5017,
      "梁": 5018,
      "梅": 5019,
      "梌": 5020,
      "梗": 5021,
      "條": 5022,
      "梢": 5023,
      "梦": 5024,
      "梯": 5025,
      "械": 5026,
      "梵": 5027,
      "检": 5028,
      "棋": 5029,
      "棒": 5030,
      "棚": 5031,
      "棠": 5032,
      "棣": 5033,
      "森": 5034,
      "棺": 5035,
      "植": 5036,
      "椒": 5037,
      "検": 5038,
      "楊": 5039,
      "楚": 5040,
      "楝": 5041,
      "楞": 5042,
      "楠": 5043,
      "業": 5044,
      "極": 5045,
      "楼": 5046,
      "楽": 5047,
      "概": 5048,
      "槃": 5049,
      "構": 5050,
      "槐": 5051,
      "様": 5052,
      "樁": 5053,
      "樂": 5054,
      "樊": 5055,
      "樑": 5056,
      "樓": 5057,
      "標": 5058,
      "模": 5059,
      "樣": 5060,
      "横": 5061,
      "樹": 5062,
      "橋": 5063,
      "橘": 5064,
      "橙": 5065,
      "機": 5066,
      "橫": 5067,
      "檒": 5068,
      "檔": 5069,
      "檚": 5070,
      "檜": 5071,
      "檯": 5072,
      "櫓": 5073,
      "櫕": 5074,
      "櫡": 5075,
      "權": 5076,
      "欝": 5077,
      "次": 5078,
      "欢": 5079,
      "欣": 5080,
      "欧": 5081,
      "欲": 5082,
      "欺": 5083,
      "款": 5084,
      "歇": 5085,
      "歉": 5086,
      "歌": 5087,
      "歐": 5088,
      "歡": 5089,
      "止": 5090,
      "正": 5091,
      "此": 5092,
      "步": 5093,
      "武": 5094,
      "歧": 5095,
      "歩": 5096,
      "歪": 5097,
      "歲": 5098,
      "歳": 5099,
      "歴": 5100,
      "死": 5101,
      "殆": 5102,
      "殊": 5103,
      "残": 5104,
      "段": 5105,
      "殺": 5106,
      "殻": 5107,
      "殿": 5108,
      "毁": 5109,
      "毅": 5110,
      "毋": 5111,
      "母": 5112,
      "每": 5113,
      "毒": 5114,
      "比": 5115,
      "毛": 5116,
      "毫": 5117,
      "氏": 5118,
      "民": 5119,
      "气": 5120,
      "気": 5121,
      "氣": 5122,
      "氧": 5123,
      "水": 5124,
      "氷": 5125,
      "永": 5126,
      "汁": 5127,
      "求": 5128,
      "汇": 5129,
      "汉": 5130,
      "江": 5131,
      "池": 5132,
      "污": 5133,
      "汤": 5134,
      "汰": 5135,
      "決": 5136,
      "汽": 5137,
      "沁": 5138,
      "沃": 5139,
      "沒": 5140,
      "沓": 5141,
      "沙": 5142,
      "沟": 5143,
      "没": 5144,
      "沢": 5145,
      "沪": 5146,
      "河": 5147,
      "油": 5148,
      "治": 5149,
      "沽": 5150,
      "沿": 5151,
      "泉": 5152,
      "泊": 5153,
      "法": 5154,
      "泛": 5155,
      "泡": 5156,
      "波": 5157,
      "泥": 5158,
      "注": 5159,
      "泰": 5160,
      "泳": 5161,
      "泵": 5162,
      "泽": 5163,
      "洁": 5164,
      "洋": 5165,
      "洒": 5166,
      "洗": 5167,
      "洛": 5168,
      "津": 5169,
      "洪": 5170,
      "洲": 5171,
      "活": 5172,
      "派": 5173,
      "流": 5174,
      "浆": 5175,
      "浇": 5176,
      "测": 5177,
      "济": 5178,
      "浏": 5179,
      "浓": 5180,
      "浙": 5181,
      "浜": 5182,
      "浦": 5183,
      "浩": 5184,
      "浪": 5185,
      "浮": 5186,
      "浴": 5187,
      "海": 5188,
      "涅": 5189,
      "消": 5190,
      "涉": 5191,
      "涯": 5192,
      "液": 5193,
      "淀": 5194,
      "淅": 5195,
      "淇": 5196,
      "淋": 5197,
      "淘": 5198,
      "淡": 5199,
      "淤": 5200,
      "淨": 5201,
      "深": 5202,
      "淳": 5203,
      "淵": 5204,
      "混": 5205,
      "淹": 5206,
      "淺": 5207,
      "添": 5208,
      "清": 5209,
      "済": 5210,
      "渋": 5211,
      "渐": 5212,
      "渓": 5213,
      "減": 5214,
      "渠": 5215,
      "渡": 5216,
      "温": 5217,
      "測": 5218,
      "港": 5219,
      "游": 5220,
      "湊": 5221,
      "湖": 5222,
      "湛": 5223,
      "湯": 5224,
      "湾": 5225,
      "満": 5226,
      "溃": 5227,
      "溉": 5228,
      "源": 5229,
      "準": 5230,
      "溜": 5231,
      "溝": 5232,
      "溪": 5233,
      "溫": 5234,
      "溯": 5235,
      "滅": 5236,
      "滋": 5237,
      "滑": 5238,
      "滕": 5239,
      "满": 5240,
      "滦": 5241,
      "滴": 5242,
      "漂": 5243,
      "漆": 5244,
      "演": 5245,
      "漢": 5246,
      "漫": 5247,
      "漸": 5248,
      "潔": 5249,
      "潘": 5250,
      "潛": 5251,
      "潜": 5252,
      "潟": 5253,
      "潮": 5254,
      "澄": 5255,
      "澤": 5256,
      "澳": 5257,
      "激": 5258,
      "濂": 5259,
      "濃": 5260,
      "濟": 5261,
      "瀧": 5262,
      "瀬": 5263,
      "灌": 5264,
      "灝": 5265,
      "灣": 5266,
      "火": 5267,
      "灯": 5268,
      "灵": 5269,
      "災": 5270,
      "灾": 5271,
      "炉": 5272,
      "炎": 5273,
      "炒": 5274,
      "炖": 5275,
      "炬": 5276,
      "炮": 5277,
      "炷": 5278,
      "炸": 5279,
      "点": 5280,
      "為": 5281,
      "炼": 5282,
      "烈": 5283,
      "烏": 5284,
      "烘": 5285,
      "烤": 5286,
      "烩": 5287,
      "热": 5288,
      "烯": 5289,
      "烹": 5290,
      "焉": 5291,
      "焊": 5292,
      "焙": 5293,
      "無": 5294,
      "焦": 5295,
      "焰": 5296,
      "然": 5297,
      "焼": 5298,
      "煌": 5299,
      "煎": 5300,
      "煤": 5301,
      "照": 5302,
      "煮": 5303,
      "煲": 5304,
      "煽": 5305,
      "熊": 5306,
      "熔": 5307,
      "熙": 5308,
      "熟": 5309,
      "熱": 5310,
      "熹": 5311,
      "燃": 5312,
      "燈": 5313,
      "燒": 5314,
      "燕": 5315,
      "營": 5316,
      "燥": 5317,
      "燵": 5318,
      "爆": 5319,
      "爨": 5320,
      "爪": 5321,
      "爬": 5322,
      "爭": 5323,
      "爱": 5324,
      "爲": 5325,
      "爵": 5326,
      "父": 5327,
      "爸": 5328,
      "爾": 5329,
      "牆": 5330,
      "片": 5331,
      "版": 5332,
      "牌": 5333,
      "牙": 5334,
      "牛": 5335,
      "牟": 5336,
      "牧": 5337,
      "物": 5338,
      "特": 5339,
      "牽": 5340,
      "犀": 5341,
      "犬": 5342,
      "状": 5343,
      "狀": 5344,
      "狐": 5345,
      "狖": 5346,
      "狗": 5347,
      "狛": 5348,
      "独": 5349,
      "狼": 5350,
      "猎": 5351,
      "猪": 5352,
      "猫": 5353,
      "献": 5354,
      "猴": 5355,
      "猿": 5356,
      "獅": 5357,
      "獎": 5358,
      "獐": 5359,
      "獨": 5360,
      "獲": 5361,
      "獻": 5362,
      "玄": 5363,
      "率": 5364,
      "玉": 5365,
      "王": 5366,
      "玛": 5367,
      "玩": 5368,
      "环": 5369,
      "现": 5370,
      "玻": 5371,
      "珀": 5372,
      "珊": 5373,
      "珍": 5374,
      "珠": 5375,
      "班": 5376,
      "現": 5377,
      "球": 5378,
      "理": 5379,
      "琉": 5380,
      "琥": 5381,
      "琳": 5382,
      "瑞": 5383,
      "瑪": 5384,
      "璃": 5385,
      "璋": 5386,
      "環": 5387,
      "璽": 5388,
      "瓦": 5389,
      "瓶": 5390,
      "瓷": 5391,
      "甒": 5392,
      "甘": 5393,
      "甚": 5394,
      "甜": 5395,
      "生": 5396,
      "產": 5397,
      "産": 5398,
      "甥": 5399,
      "用": 5400,
      "甩": 5401,
      "甫": 5402,
      "甭": 5403,
      "田": 5404,
      "由": 5405,
      "甲": 5406,
      "申": 5407,
      "电": 5408,
      "男": 5409,
      "甸": 5410,
      "甹": 5411,
      "町": 5412,
      "画": 5413,
      "界": 5414,
      "留": 5415,
      "畝": 5416,
      "畢": 5417,
      "略": 5418,
      "番": 5419,
      "畫": 5420,
      "畲": 5421,
      "畵": 5422,
      "當": 5423,
      "疏": 5424,
      "疑": 5425,
      "疣": 5426,
      "疤": 5427,
      "疫": 5428,
      "疼": 5429,
      "疾": 5430,
      "病": 5431,
      "症": 5432,
      "痕": 5433,
      "痛": 5434,
      "瘦": 5435,
      "療": 5436,
      "癌": 5437,
      "癖": 5438,
      "発": 5439,
      "登": 5440,
      "發": 5441,
      "白": 5442,
      "百": 5443,
      "皁": 5444,
      "的": 5445,
      "皆": 5446,
      "皇": 5447,
      "皋": 5448,
      "皓": 5449,
      "皮": 5450,
      "皱": 5451,
      "盃": 5452,
      "益": 5453,
      "盐": 5454,
      "监": 5455,
      "盒": 5456,
      "盖": 5457,
      "盘": 5458,
      "盛": 5459,
      "盟": 5460,
      "監": 5461,
      "盤": 5462,
      "盧": 5463,
      "目": 5464,
      "直": 5465,
      "相": 5466,
      "省": 5467,
      "看": 5468,
      "県": 5469,
      "眞": 5470,
      "真": 5471,
      "眠": 5472,
      "眼": 5473,
      "眾": 5474,
      "着": 5475,
      "睡": 5476,
      "督": 5477,
      "睿": 5478,
      "瞄": 5479,
      "瞎": 5480,
      "瞧": 5481,
      "瞰": 5482,
      "矢": 5483,
      "矣": 5484,
      "知": 5485,
      "矩": 5486,
      "短": 5487,
      "石": 5488,
      "矿": 5489,
      "码": 5490,
      "砂": 5491,
      "研": 5492,
      "砧": 5493,
      "破": 5494,
      "础": 5495,
      "硅": 5496,
      "硕": 5497,
      "硝": 5498,
      "硬": 5499,
      "确": 5500,
      "碍": 5501,
      "碑": 5502,
      "碱": 5503,
      "確": 5504,
      "碼": 5505,
      "碾": 5506,
      "磁": 5507,
      "磨": 5508,
      "礎": 5509,
      "礙": 5510,
      "示": 5511,
      "礼": 5512,
      "社": 5513,
      "祇": 5514,
      "祐": 5515,
      "祖": 5516,
      "祝": 5517,
      "神": 5518,
      "祠": 5519,
      "祥": 5520,
      "票": 5521,
      "祭": 5522,
      "祸": 5523,
      "禄": 5524,
      "禅": 5525,
      "福": 5526,
      "禜": 5527,
      "禦": 5528,
      "禪": 5529,
      "禮": 5530,
      "禰": 5531,
      "禹": 5532,
      "离": 5533,
      "禾": 5534,
      "秀": 5535,
      "私": 5536,
      "秋": 5537,
      "种": 5538,
      "科": 5539,
      "秒": 5540,
      "秘": 5541,
      "秦": 5542,
      "秩": 5543,
      "积": 5544,
      "称": 5545,
      "移": 5546,
      "稅": 5547,
      "程": 5548,
      "税": 5549,
      "稚": 5550,
      "稠": 5551,
      "稣": 5552,
      "種": 5553,
      "稱": 5554,
      "稲": 5555,
      "稷": 5556,
      "稼": 5557,
      "稿": 5558,
      "穀": 5559,
      "穆": 5560,
      "積": 5561,
      "穣": 5562,
      "穩": 5563,
      "穴": 5564,
      "究": 5565,
      "穷": 5566,
      "空": 5567,
      "穿": 5568,
      "突": 5569,
      "窄": 5570,
      "窗": 5571,
      "窟": 5572,
      "立": 5573,
      "竖": 5574,
      "站": 5575,
      "竞": 5576,
      "章": 5577,
      "童": 5578,
      "端": 5579,
      "競": 5580,
      "竹": 5581,
      "竺": 5582,
      "笑": 5583,
      "笔": 5584,
      "笙": 5585,
      "笛": 5586,
      "笠": 5587,
      "符": 5588,
      "笨": 5589,
      "第": 5590,
      "笹": 5591,
      "笼": 5592,
      "筆": 5593,
      "等": 5594,
      "筋": 5595,
      "筑": 5596,
      "筒": 5597,
      "答": 5598,
      "策": 5599,
      "筯": 5600,
      "签": 5601,
      "简": 5602,
      "箕": 5603,
      "算": 5604,
      "管": 5605,
      "箭": 5606,
      "箱": 5607,
      "箸": 5608,
      "節": 5609,
      "篇": 5610,
      "築": 5611,
      "篡": 5612,
      "簡": 5613,
      "簪": 5614,
      "簾": 5615,
      "籌": 5616,
      "籍": 5617,
      "籠": 5618,
      "籤": 5619,
      "米": 5620,
      "类": 5621,
      "粉": 5622,
      "粒": 5623,
      "粛": 5624,
      "粟": 5625,
      "粤": 5626,
      "粥": 5627,
      "粲": 5628,
      "粵": 5629,
      "精": 5630,
      "糊": 5631,
      "糕": 5632,
      "糖": 5633,
      "糟": 5634,
      "糸": 5635,
      "系": 5636,
      "紀": 5637,
      "約": 5638,
      "紅": 5639,
      "紋": 5640,
      "納": 5641,
      "紐": 5642,
      "純": 5643,
      "紗": 5644,
      "紙": 5645,
      "級": 5646,
      "素": 5647,
      "索": 5648,
      "紧": 5649,
      "紫": 5650,
      "細": 5651,
      "紹": 5652,
      "終": 5653,
      "組": 5654,
      "経": 5655,
      "結": 5656,
      "絕": 5657,
      "絞": 5658,
      "絡": 5659,
      "給": 5660,
      "統": 5661,
      "絲": 5662,
      "絵": 5663,
      "絶": 5664,
      "絹": 5665,
      "經": 5666,
      "続": 5667,
      "綠": 5668,
      "維": 5669,
      "網": 5670,
      "綿": 5671,
      "緊": 5672,
      "総": 5673,
      "緑": 5674,
      "線": 5675,
      "締": 5676,
      "緣": 5677,
      "編": 5678,
      "緩": 5679,
      "緯": 5680,
      "練": 5681,
      "緻": 5682,
      "縁": 5683,
      "縣": 5684,
      "總": 5685,
      "繁": 5686,
      "織": 5687,
      "繞": 5688,
      "繩": 5689,
      "繪": 5690,
      "繫": 5691,
      "繼": 5692,
      "續": 5693,
      "纏": 5694,
      "纒": 5695,
      "纖": 5696,
      "红": 5697,
      "约": 5698,
      "级": 5699,
      "纪": 5700,
      "纯": 5701,
      "纳": 5702,
      "纵": 5703,
      "纹": 5704,
      "纽": 5705,
      "线": 5706,
      "练": 5707,
      "组": 5708,
      "细": 5709,
      "织": 5710,
      "绍": 5711,
      "经": 5712,
      "结": 5713,
      "绕": 5714,
      "绘": 5715,
      "给": 5716,
      "络": 5717,
      "绝": 5718,
      "统": 5719,
      "继": 5720,
      "绩": 5721,
      "绪": 5722,
      "续": 5723,
      "维": 5724,
      "绸": 5725,
      "综": 5726,
      "绿": 5727,
      "缆": 5728,
      "编": 5729,
      "缘": 5730,
      "缝": 5731,
      "缩": 5732,
      "缺": 5733,
      "网": 5734,
      "罕": 5735,
      "罗": 5736,
      "罚": 5737,
      "罩": 5738,
      "罪": 5739,
      "置": 5740,
      "罷": 5741,
      "罹": 5742,
      "羅": 5743,
      "羊": 5744,
      "美": 5745,
      "羞": 5746,
      "羣": 5747,
      "群": 5748,
      "義": 5749,
      "羽": 5750,
      "翁": 5751,
      "翌": 5752,
      "習": 5753,
      "翘": 5754,
      "翠": 5755,
      "翳": 5756,
      "翻": 5757,
      "耀": 5758,
      "老": 5759,
      "考": 5760,
      "者": 5761,
      "耆": 5762,
      "而": 5763,
      "耐": 5764,
      "耗": 5765,
      "耳": 5766,
      "耶": 5767,
      "聂": 5768,
      "职": 5769,
      "联": 5770,
      "聖": 5771,
      "聘": 5772,
      "聚": 5773,
      "聞": 5774,
      "聪": 5775,
      "聯": 5776,
      "聲": 5777,
      "聴": 5778,
      "職": 5779,
      "聽": 5780,
      "肉": 5781,
      "肌": 5782,
      "肝": 5783,
      "股": 5784,
      "肥": 5785,
      "肯": 5786,
      "育": 5787,
      "肴": 5788,
      "肺": 5789,
      "胀": 5790,
      "胆": 5791,
      "背": 5792,
      "胎": 5793,
      "胜": 5794,
      "胡": 5795,
      "胭": 5796,
      "胸": 5797,
      "能": 5798,
      "脂": 5799,
      "脆": 5800,
      "脊": 5801,
      "脏": 5802,
      "脑": 5803,
      "脚": 5804,
      "脩": 5805,
      "脳": 5806,
      "腊": 5807,
      "腐": 5808,
      "腑": 5809,
      "腔": 5810,
      "腦": 5811,
      "腫": 5812,
      "腰": 5813,
      "腸": 5814,
      "腹": 5815,
      "腾": 5816,
      "腿": 5817,
      "膏": 5818,
      "膠": 5819,
      "膨": 5820,
      "膾": 5821,
      "臂": 5822,
      "臉": 5823,
      "臓": 5824,
      "臟": 5825,
      "臣": 5826,
      "臨": 5827,
      "自": 5828,
      "臭": 5829,
      "臯": 5830,
      "至": 5831,
      "致": 5832,
      "臺": 5833,
      "舆": 5834,
      "與": 5835,
      "興": 5836,
      "舉": 5837,
      "舌": 5838,
      "舍": 5839,
      "舎": 5840,
      "舜": 5841,
      "舞": 5842,
      "舟": 5843,
      "舨": 5844,
      "航": 5845,
      "般": 5846,
      "船": 5847,
      "艇": 5848,
      "艦": 5849,
      "良": 5850,
      "艰": 5851,
      "色": 5852,
      "艸": 5853,
      "艹": 5854,
      "艺": 5855,
      "艾": 5856,
      "节": 5857,
      "芃": 5858,
      "芙": 5859,
      "芬": 5860,
      "芯": 5861,
      "花": 5862,
      "芳": 5863,
      "芽": 5864,
      "苋": 5865,
      "苍": 5866,
      "苏": 5867,
      "苑": 5868,
      "苔": 5869,
      "若": 5870,
      "苦": 5871,
      "苯": 5872,
      "英": 5873,
      "茂": 5874,
      "范": 5875,
      "茅": 5876,
      "茎": 5877,
      "茨": 5878,
      "茲": 5879,
      "茶": 5880,
      "荆": 5881,
      "草": 5882,
      "荐": 5883,
      "荘": 5884,
      "荡": 5885,
      "荣": 5886,
      "荷": 5887,
      "荻": 5888,
      "荼": 5889,
      "莊": 5890,
      "莎": 5891,
      "莧": 5892,
      "莫": 5893,
      "莲": 5894,
      "获": 5895,
      "菅": 5896,
      "菌": 5897,
      "菜": 5898,
      "菩": 5899,
      "華": 5900,
      "菲": 5901,
      "萄": 5902,
      "萍": 5903,
      "萎": 5904,
      "营": 5905,
      "萨": 5906,
      "萩": 5907,
      "萬": 5908,
      "落": 5909,
      "葉": 5910,
      "著": 5911,
      "葛": 5912,
      "葡": 5913,
      "葦": 5914,
      "葱": 5915,
      "蒙": 5916,
      "蒜": 5917,
      "蒸": 5918,
      "蒻": 5919,
      "蓄": 5920,
      "蓉": 5921,
      "蓋": 5922,
      "蓍": 5923,
      "蓑": 5924,
      "蓝": 5925,
      "蓮": 5926,
      "蔗": 5927,
      "蔡": 5928,
      "蔣": 5929,
      "蔥": 5930,
      "蔬": 5931,
      "蔵": 5932,
      "蔷": 5933,
      "蕃": 5934,
      "蕎": 5935,
      "薄": 5936,
      "薆": 5937,
      "薦": 5938,
      "薩": 5939,
      "薬": 5940,
      "薰": 5941,
      "藍": 5942,
      "藏": 5943,
      "藝": 5944,
      "藤": 5945,
      "藥": 5946,
      "藿": 5947,
      "蘇": 5948,
      "蘭": 5949,
      "虎": 5950,
      "處": 5951,
      "虚": 5952,
      "虛": 5953,
      "虞": 5954,
      "號": 5955,
      "虢": 5956,
      "虧": 5957,
      "虫": 5958,
      "虹": 5959,
      "虽": 5960,
      "虾": 5961,
      "蚁": 5962,
      "蚂": 5963,
      "蚩": 5964,
      "蛇": 5965,
      "蛋": 5966,
      "蛍": 5967,
      "蛙": 5968,
      "蛟": 5969,
      "蛳": 5970,
      "蜂": 5971,
      "蜜": 5972,
      "蝉": 5973,
      "蝦": 5974,
      "融": 5975,
      "螺": 5976,
      "蟬": 5977,
      "蟹": 5978,
      "蠢": 5979,
      "血": 5980,
      "衄": 5981,
      "衆": 5982,
      "行": 5983,
      "衍": 5984,
      "術": 5985,
      "街": 5986,
      "衛": 5987,
      "衡": 5988,
      "衣": 5989,
      "补": 5990,
      "表": 5991,
      "衰": 5992,
      "袁": 5993,
      "袋": 5994,
      "袒": 5995,
      "被": 5996,
      "袭": 5997,
      "裁": 5998,
      "裂": 5999,
      "装": 6000,
      "裏": 6001,
      "裕": 6002,
      "補": 6003,
      "裝": 6004,
      "裡": 6005,
      "製": 6006,
      "複": 6007,
      "褐": 6008,
      "褒": 6009,
      "襄": 6010,
      "襲": 6011,
      "西": 6012,
      "要": 6013,
      "覆": 6014,
      "見": 6015,
      "規": 6016,
      "視": 6017,
      "覧": 6018,
      "親": 6019,
      "観": 6020,
      "覺": 6021,
      "觀": 6022,
      "见": 6023,
      "观": 6024,
      "规": 6025,
      "视": 6026,
      "览": 6027,
      "觑": 6028,
      "角": 6029,
      "解": 6030,
      "言": 6031,
      "訂": 6032,
      "計": 6033,
      "訊": 6034,
      "討": 6035,
      "訓": 6036,
      "記": 6037,
      "訣": 6038,
      "訪": 6039,
      "設": 6040,
      "許": 6041,
      "訳": 6042,
      "註": 6043,
      "証": 6044,
      "評": 6045,
      "詞": 6046,
      "詠": 6047,
      "詢": 6048,
      "詣": 6049,
      "試": 6050,
      "詩": 6051,
      "詰": 6052,
      "話": 6053,
      "該": 6054,
      "詳": 6055,
      "詹": 6056,
      "誅": 6057,
      "誉": 6058,
      "誌": 6059,
      "認": 6060,
      "誓": 6061,
      "誕": 6062,
      "語": 6063,
      "誤": 6064,
      "說": 6065,
      "説": 6066,
      "読": 6067,
      "誰": 6068,
      "課": 6069,
      "調": 6070,
      "談": 6071,
      "請": 6072,
      "論": 6073,
      "諡": 6074,
      "諧": 6075,
      "諸": 6076,
      "謀": 6077,
      "謙": 6078,
      "講": 6079,
      "謝": 6080,
      "謨": 6081,
      "謬": 6082,
      "證": 6083,
      "識": 6084,
      "譜": 6085,
      "警": 6086,
      "譯": 6087,
      "議": 6088,
      "護": 6089,
      "讀": 6090,
      "變": 6091,
      "讓": 6092,
      "计": 6093,
      "订": 6094,
      "认": 6095,
      "讨": 6096,
      "让": 6097,
      "训": 6098,
      "议": 6099,
      "讯": 6100,
      "记": 6101,
      "讲": 6102,
      "许": 6103,
      "论": 6104,
      "设": 6105,
      "访": 6106,
      "证": 6107,
      "评": 6108,
      "识": 6109,
      "诉": 6110,
      "词": 6111,
      "译": 6112,
      "试": 6113,
      "诘": 6114,
      "话": 6115,
      "诞": 6116,
      "询": 6117,
      "该": 6118,
      "语": 6119,
      "误": 6120,
      "说": 6121,
      "诵": 6122,
      "请": 6123,
      "诸": 6124,
      "读": 6125,
      "课": 6126,
      "调": 6127,
      "谈": 6128,
      "谋": 6129,
      "谟": 6130,
      "谢": 6131,
      "谤": 6132,
      "谦": 6133,
      "谨": 6134,
      "谱": 6135,
      "谷": 6136,
      "豆": 6137,
      "豊": 6138,
      "豚": 6139,
      "象": 6140,
      "貓": 6141,
      "貝": 6142,
      "負": 6143,
      "財": 6144,
      "貢": 6145,
      "貧": 6146,
      "販": 6147,
      "貪": 6148,
      "責": 6149,
      "貴": 6150,
      "買": 6151,
      "貸": 6152,
      "費": 6153,
      "賀": 6154,
      "資": 6155,
      "賛": 6156,
      "賞": 6157,
      "賣": 6158,
      "賤": 6159,
      "質": 6160,
      "賴": 6161,
      "賽": 6162,
      "贊": 6163,
      "贏": 6164,
      "贝": 6165,
      "负": 6166,
      "贡": 6167,
      "财": 6168,
      "责": 6169,
      "贤": 6170,
      "败": 6171,
      "账": 6172,
      "货": 6173,
      "质": 6174,
      "购": 6175,
      "贵": 6176,
      "贸": 6177,
      "费": 6178,
      "贺": 6179,
      "资": 6180,
      "赋": 6181,
      "赌": 6182,
      "赖": 6183,
      "赛": 6184,
      "赞": 6185,
      "赢": 6186,
      "赣": 6187,
      "赤": 6188,
      "赫": 6189,
      "走": 6190,
      "赵": 6191,
      "起": 6192,
      "超": 6193,
      "越": 6194,
      "趙": 6195,
      "趟": 6196,
      "趣": 6197,
      "足": 6198,
      "跆": 6199,
      "跋": 6200,
      "跏": 6201,
      "跑": 6202,
      "距": 6203,
      "跟": 6204,
      "跡": 6205,
      "跤": 6206,
      "跨": 6207,
      "路": 6208,
      "跳": 6209,
      "践": 6210,
      "踏": 6211,
      "踐": 6212,
      "踢": 6213,
      "蹑": 6214,
      "蹶": 6215,
      "躍": 6216,
      "身": 6217,
      "車": 6218,
      "軌": 6219,
      "軍": 6220,
      "転": 6221,
      "軸": 6222,
      "軻": 6223,
      "軽": 6224,
      "較": 6225,
      "輕": 6226,
      "輝": 6227,
      "輩": 6228,
      "輪": 6229,
      "輸": 6230,
      "轉": 6231,
      "车": 6232,
      "轨": 6233,
      "转": 6234,
      "轮": 6235,
      "软": 6236,
      "轰": 6237,
      "轻": 6238,
      "载": 6239,
      "较": 6240,
      "辉": 6241,
      "辑": 6242,
      "输": 6243,
      "辛": 6244,
      "辞": 6245,
      "辣": 6246,
      "辦": 6247,
      "辨": 6248,
      "辭": 6249,
      "辯": 6250,
      "辱": 6251,
      "農": 6252,
      "辵": 6253,
      "边": 6254,
      "辺": 6255,
      "込": 6256,
      "辽": 6257,
      "达": 6258,
      "迁": 6259,
      "迅": 6260,
      "过": 6261,
      "迈": 6262,
      "迎": 6263,
      "运": 6264,
      "近": 6265,
      "返": 6266,
      "还": 6267,
      "这": 6268,
      "进": 6269,
      "远": 6270,
      "违": 6271,
      "连": 6272,
      "迦": 6273,
      "迪": 6274,
      "述": 6275,
      "迷": 6276,
      "迹": 6277,
      "追": 6278,
      "退": 6279,
      "送": 6280,
      "适": 6281,
      "逃": 6282,
      "选": 6283,
      "逍": 6284,
      "透": 6285,
      "逐": 6286,
      "递": 6287,
      "途": 6288,
      "逖": 6289,
      "逗": 6290,
      "這": 6291,
      "通": 6292,
      "速": 6293,
      "造": 6294,
      "連": 6295,
      "週": 6296,
      "進": 6297,
      "逸": 6298,
      "逾": 6299,
      "遅": 6300,
      "遇": 6301,
      "遊": 6302,
      "運": 6303,
      "遍": 6304,
      "過": 6305,
      "道": 6306,
      "達": 6307,
      "違": 6308,
      "遗": 6309,
      "遠": 6310,
      "遥": 6311,
      "適": 6312,
      "遭": 6313,
      "遵": 6314,
      "遷": 6315,
      "選": 6316,
      "遺": 6317,
      "遼": 6318,
      "避": 6319,
      "還": 6320,
      "邊": 6321,
      "邏": 6322,
      "邓": 6323,
      "邕": 6324,
      "那": 6325,
      "邦": 6326,
      "邨": 6327,
      "邪": 6328,
      "邮": 6329,
      "邵": 6330,
      "邹": 6331,
      "郁": 6332,
      "郊": 6333,
      "郎": 6334,
      "郡": 6335,
      "郧": 6336,
      "部": 6337,
      "郭": 6338,
      "郵": 6339,
      "都": 6340,
      "鄧": 6341,
      "鄭": 6342,
      "鄯": 6343,
      "鄴": 6344,
      "酌": 6345,
      "配": 6346,
      "酒": 6347,
      "酚": 6348,
      "酢": 6349,
      "酯": 6350,
      "酵": 6351,
      "酸": 6352,
      "醃": 6353,
      "醇": 6354,
      "醒": 6355,
      "醛": 6356,
      "醤": 6357,
      "醫": 6358,
      "醬": 6359,
      "采": 6360,
      "釉": 6361,
      "释": 6362,
      "釋": 6363,
      "里": 6364,
      "重": 6365,
      "野": 6366,
      "量": 6367,
      "金": 6368,
      "釜": 6369,
      "鈎": 6370,
      "鈥": 6371,
      "鈩": 6372,
      "鈴": 6373,
      "鈿": 6374,
      "鉄": 6375,
      "鉢": 6376,
      "鉤": 6377,
      "鉦": 6378,
      "鉴": 6379,
      "銀": 6380,
      "銃": 6381,
      "銅": 6382,
      "銘": 6383,
      "銷": 6384,
      "鋒": 6385,
      "鋼": 6386,
      "錄": 6387,
      "錚": 6388,
      "錢": 6389,
      "錤": 6390,
      "錬": 6391,
      "録": 6392,
      "鍛": 6393,
      "鍵": 6394,
      "鎮": 6395,
      "鎰": 6396,
      "鏡": 6397,
      "鏢": 6398,
      "鏨": 6399,
      "鐘": 6400,
      "鐵": 6401,
      "鑑": 6402,
      "鑒": 6403,
      "鑣": 6404,
      "钓": 6405,
      "钟": 6406,
      "钢": 6407,
      "钥": 6408,
      "钦": 6409,
      "钮": 6410,
      "钱": 6411,
      "铁": 6412,
      "铜": 6413,
      "铭": 6414,
      "银": 6415,
      "铺": 6416,
      "链": 6417,
      "销": 6418,
      "锅": 6419,
      "锋": 6420,
      "错": 6421,
      "锡": 6422,
      "锦": 6423,
      "键": 6424,
      "锻": 6425,
      "镇": 6426,
      "镜": 6427,
      "長": 6428,
      "长": 6429,
      "門": 6430,
      "閃": 6431,
      "閉": 6432,
      "開": 6433,
      "間": 6434,
      "閟": 6435,
      "関": 6436,
      "閣": 6437,
      "閩": 6438,
      "閱": 6439,
      "闇": 6440,
      "闕": 6441,
      "關": 6442,
      "闡": 6443,
      "门": 6444,
      "闭": 6445,
      "问": 6446,
      "闲": 6447,
      "间": 6448,
      "闹": 6449,
      "闻": 6450,
      "阀": 6451,
      "阁": 6452,
      "阅": 6453,
      "阐": 6454,
      "阜": 6455,
      "队": 6456,
      "阪": 6457,
      "防": 6458,
      "阳": 6459,
      "阴": 6460,
      "阶": 6461,
      "阻": 6462,
      "阿": 6463,
      "陀": 6464,
      "附": 6465,
      "际": 6466,
      "陆": 6467,
      "陈": 6468,
      "降": 6469,
      "限": 6470,
      "陜": 6471,
      "院": 6472,
      "除": 6473,
      "险": 6474,
      "陰": 6475,
      "陳": 6476,
      "陵": 6477,
      "陶": 6478,
      "陸": 6479,
      "陽": 6480,
      "隅": 6481,
      "隆": 6482,
      "隊": 6483,
      "隋": 6484,
      "随": 6485,
      "際": 6486,
      "障": 6487,
      "隠": 6488,
      "隣": 6489,
      "隨": 6490,
      "險": 6491,
      "隶": 6492,
      "隽": 6493,
      "难": 6494,
      "雀": 6495,
      "雄": 6496,
      "雅": 6497,
      "集": 6498,
      "雇": 6499,
      "雍": 6500,
      "雑": 6501,
      "雙": 6502,
      "雜": 6503,
      "雞": 6504,
      "離": 6505,
      "難": 6506,
      "雨": 6507,
      "雪": 6508,
      "雲": 6509,
      "零": 6510,
      "雷": 6511,
      "電": 6512,
      "需": 6513,
      "震": 6514,
      "霊": 6515,
      "霍": 6516,
      "露": 6517,
      "靈": 6518,
      "青": 6519,
      "静": 6520,
      "靜": 6521,
      "非": 6522,
      "靠": 6523,
      "面": 6524,
      "革": 6525,
      "靴": 6526,
      "鞋": 6527,
      "韌": 6528,
      "韓": 6529,
      "韧": 6530,
      "韩": 6531,
      "音": 6532,
      "韻": 6533,
      "響": 6534,
      "頁": 6535,
      "頂": 6536,
      "項": 6537,
      "須": 6538,
      "頊": 6539,
      "預": 6540,
      "頑": 6541,
      "頡": 6542,
      "頭": 6543,
      "頸": 6544,
      "頻": 6545,
      "頼": 6546,
      "題": 6547,
      "額": 6548,
      "顏": 6549,
      "顓": 6550,
      "顔": 6551,
      "顕": 6552,
      "願": 6553,
      "類": 6554,
      "顧": 6555,
      "顯": 6556,
      "页": 6557,
      "顶": 6558,
      "项": 6559,
      "顺": 6560,
      "须": 6561,
      "顿": 6562,
      "预": 6563,
      "领": 6564,
      "颈": 6565,
      "颐": 6566,
      "频": 6567,
      "题": 6568,
      "颚": 6569,
      "颜": 6570,
      "颠": 6571,
      "颢": 6572,
      "風": 6573,
      "风": 6574,
      "飛": 6575,
      "飞": 6576,
      "食": 6577,
      "飥": 6578,
      "飯": 6579,
      "飲": 6580,
      "飼": 6581,
      "飾": 6582,
      "餃": 6583,
      "餅": 6584,
      "養": 6585,
      "餐": 6586,
      "餘": 6587,
      "館": 6588,
      "餺": 6589,
      "饅": 6590,
      "饭": 6591,
      "饮": 6592,
      "饱": 6593,
      "饺": 6594,
      "饼": 6595,
      "馆": 6596,
      "首": 6597,
      "香": 6598,
      "馥": 6599,
      "馬": 6600,
      "馮": 6601,
      "馴": 6602,
      "駅": 6603,
      "駛": 6604,
      "騎": 6605,
      "験": 6606,
      "騰": 6607,
      "驗": 6608,
      "马": 6609,
      "驷": 6610,
      "驼": 6611,
      "骂": 6612,
      "骆": 6613,
      "验": 6614,
      "骑": 6615,
      "骗": 6616,
      "骤": 6617,
      "骨": 6618,
      "體": 6619,
      "高": 6620,
      "鬆": 6621,
      "鬘": 6622,
      "鬱": 6623,
      "鬼": 6624,
      "魂": 6625,
      "魏": 6626,
      "魚": 6627,
      "魯": 6628,
      "鮒": 6629,
      "鮓": 6630,
      "鮨": 6631,
      "鮮": 6632,
      "鯉": 6633,
      "鯖": 6634,
      "鯰": 6635,
      "鯽": 6636,
      "鰈": 6637,
      "鱸": 6638,
      "鱼": 6639,
      "鲁": 6640,
      "鲈": 6641,
      "鲑": 6642,
      "鲜": 6643,
      "鲢": 6644,
      "鲤": 6645,
      "鲨": 6646,
      "鲫": 6647,
      "鲳": 6648,
      "鳕": 6649,
      "鳗": 6650,
      "鳥": 6651,
      "鳳": 6652,
      "鳴": 6653,
      "鴉": 6654,
      "鴨": 6655,
      "鵮": 6656,
      "鶏": 6657,
      "鶴": 6658,
      "鷄": 6659,
      "鸟": 6660,
      "鸡": 6661,
      "鸣": 6662,
      "鸭": 6663,
      "鸿": 6664,
      "鹉": 6665,
      "鹦": 6666,
      "鹰": 6667,
      "鹿": 6668,
      "麒": 6669,
      "麗": 6670,
      "麟": 6671,
      "麥": 6672,
      "麦": 6673,
      "麵": 6674,
      "麹": 6675,
      "麻": 6676,
      "麼": 6677,
      "黃": 6678,
      "黄": 6679,
      "黏": 6680,
      "黐": 6681,
      "黑": 6682,
      "黒": 6683,
      "默": 6684,
      "黛": 6685,
      "點": 6686,
      "黨": 6687,
      "黴": 6688,
      "鼎": 6689,
      "鼓": 6690,
      "鼠": 6691,
      "齊": 6692,
      "齐": 6693,
      "齡": 6694,
      "龄": 6695,
      "龍": 6696,
      "龐": 6697,
      "龙": 6698,
      "龜": 6699,
      "ꃺ": 6700,
      "ꓽ": 6701,
      "ꕔ": 6702,
      "ꜜ": 6703,
      "ꜣ": 6704,
      "ꜥ": 6705,
      "ꜰ": 6706,
      "ꜱ": 6707,
      "꞉": 6708,
      "ꞌ": 6709,
      "Ɡ": 6710,
      "ꟷ": 6711,
      "ꠀ": 6712,
      "꠆": 6713,
      "ꠉ": 6714,
      "ꠊ": 6715,
      "ꠍ": 6716,
      "ꠎ": 6717,
      "ꠐ": 6718,
      "ꠑ": 6719,
      "ꠕ": 6720,
      "ꠛ": 6721,
      "ꠟ": 6722,
      "ꠡ": 6723,
      "ꠢ": 6724,
      "ꠣ": 6725,
      "ꠤ": 6726,
      "ꣳ": 6727,
      "꧁": 6728,
      "꧂": 6729,
      "꫰": 6730,
      "가": 6731,
      "각": 6732,
      "간": 6733,
      "갈": 6734,
      "감": 6735,
      "갑": 6736,
      "값": 6737,
      "갔": 6738,
      "강": 6739,
      "같": 6740,
      "개": 6741,
      "거": 6742,
      "건": 6743,
      "걸": 6744,
      "검": 6745,
      "것": 6746,
      "게": 6747,
      "겠": 6748,
      "겨": 6749,
      "격": 6750,
      "견": 6751,
      "결": 6752,
      "겹": 6753,
      "경": 6754,
      "계": 6755,
      "고": 6756,
      "곡": 6757,
      "곤": 6758,
      "골": 6759,
      "곳": 6760,
      "공": 6761,
      "과": 6762,
      "관": 6763,
      "괄": 6764,
      "광": 6765,
      "괜": 6766,
      "교": 6767,
      "구": 6768,
      "국": 6769,
      "군": 6770,
      "궁": 6771,
      "권": 6772,
      "궤": 6773,
      "귀": 6774,
      "귄": 6775,
      "균": 6776,
      "귤": 6777,
      "그": 6778,
      "극": 6779,
      "근": 6780,
      "글": 6781,
      "금": 6782,
      "급": 6783,
      "긍": 6784,
      "기": 6785,
      "긴": 6786,
      "김": 6787,
      "깃": 6788,
      "깊": 6789,
      "까": 6790,
      "깥": 6791,
      "깨": 6792,
      "께": 6793,
      "꼴": 6794,
      "꾸": 6795,
      "꿇": 6796,
      "끌": 6797,
      "끓": 6798,
      "끔": 6799,
      "끗": 6800,
      "끝": 6801,
      "끼": 6802,
      "낄": 6803,
      "낌": 6804,
      "낍": 6805,
      "나": 6806,
      "낙": 6807,
      "난": 6808,
      "날": 6809,
      "남": 6810,
      "났": 6811,
      "낭": 6812,
      "낮": 6813,
      "낱": 6814,
      "내": 6815,
      "냅": 6816,
      "냉": 6817,
      "냥": 6818,
      "너": 6819,
      "널": 6820,
      "넘": 6821,
      "넣": 6822,
      "네": 6823,
      "넷": 6824,
      "년": 6825,
      "념": 6826,
      "노": 6827,
      "녹": 6828,
      "놀": 6829,
      "농": 6830,
      "높": 6831,
      "뇌": 6832,
      "뇨": 6833,
      "눌": 6834,
      "뉴": 6835,
      "느": 6836,
      "는": 6837,
      "늘": 6838,
      "능": 6839,
      "니": 6840,
      "닉": 6841,
      "닌": 6842,
      "님": 6843,
      "닛": 6844,
      "닝": 6845,
      "다": 6846,
      "닥": 6847,
      "닦": 6848,
      "단": 6849,
      "달": 6850,
      "닭": 6851,
      "담": 6852,
      "답": 6853,
      "닷": 6854,
      "당": 6855,
      "대": 6856,
      "댁": 6857,
      "댓": 6858,
      "더": 6859,
      "던": 6860,
      "덜": 6861,
      "덤": 6862,
      "덩": 6863,
      "데": 6864,
      "덱": 6865,
      "델": 6866,
      "도": 6867,
      "독": 6868,
      "돈": 6869,
      "돌": 6870,
      "돕": 6871,
      "동": 6872,
      "돼": 6873,
      "되": 6874,
      "된": 6875,
      "될": 6876,
      "됩": 6877,
      "두": 6878,
      "둑": 6879,
      "둥": 6880,
      "뒤": 6881,
      "듀": 6882,
      "드": 6883,
      "득": 6884,
      "든": 6885,
      "듣": 6886,
      "들": 6887,
      "등": 6888,
      "디": 6889,
      "따": 6890,
      "딱": 6891,
      "땅": 6892,
      "때": 6893,
      "땡": 6894,
      "떠": 6895,
      "떡": 6896,
      "떤": 6897,
      "떨": 6898,
      "떻": 6899,
      "떼": 6900,
      "또": 6901,
      "뚫": 6902,
      "뛰": 6903,
      "뜻": 6904,
      "띠": 6905,
      "라": 6906,
      "락": 6907,
      "란": 6908,
      "람": 6909,
      "랍": 6910,
      "랐": 6911,
      "랑": 6912,
      "래": 6913,
      "랜": 6914,
      "램": 6915,
      "랫": 6916,
      "략": 6917,
      "량": 6918,
      "러": 6919,
      "럼": 6920,
      "럽": 6921,
      "렇": 6922,
      "레": 6923,
      "려": 6924,
      "력": 6925,
      "련": 6926,
      "렬": 6927,
      "령": 6928,
      "례": 6929,
      "로": 6930,
      "록": 6931,
      "론": 6932,
      "롤": 6933,
      "롬": 6934,
      "롯": 6935,
      "롱": 6936,
      "료": 6937,
      "루": 6938,
      "룸": 6939,
      "룹": 6940,
      "류": 6941,
      "률": 6942,
      "륭": 6943,
      "르": 6944,
      "른": 6945,
      "를": 6946,
      "름": 6947,
      "릎": 6948,
      "리": 6949,
      "린": 6950,
      "릴": 6951,
      "림": 6952,
      "립": 6953,
      "릿": 6954,
      "링": 6955,
      "마": 6956,
      "막": 6957,
      "만": 6958,
      "많": 6959,
      "말": 6960,
      "맛": 6961,
      "망": 6962,
      "맞": 6963,
      "매": 6964,
      "맥": 6965,
      "맨": 6966,
      "머": 6967,
      "먹": 6968,
      "먼": 6969,
      "멍": 6970,
      "메": 6971,
      "며": 6972,
      "면": 6973,
      "명": 6974,
      "몇": 6975,
      "모": 6976,
      "목": 6977,
      "몮": 6978,
      "몰": 6979,
      "몸": 6980,
      "못": 6981,
      "묘": 6982,
      "무": 6983,
      "묵": 6984,
      "문": 6985,
      "묻": 6986,
      "물": 6987,
      "뭐": 6988,
      "뮤": 6989,
      "므": 6990,
      "미": 6991,
      "민": 6992,
      "믿": 6993,
      "밀": 6994,
      "및": 6995,
      "바": 6996,
      "박": 6997,
      "반": 6998,
      "받": 6999,
      "발": 7000,
      "밝": 7001,
      "밤": 7002,
      "방": 7003,
      "배": 7004,
      "백": 7005,
      "버": 7006,
      "번": 7007,
      "벌": 7008,
      "법": 7009,
      "베": 7010,
      "벡": 7011,
      "벤": 7012,
      "변": 7013,
      "별": 7014,
      "병": 7015,
      "볕": 7016,
      "보": 7017,
      "복": 7018,
      "본": 7019,
      "볼": 7020,
      "봉": 7021,
      "봐": 7022,
      "부": 7023,
      "북": 7024,
      "분": 7025,
      "불": 7026,
      "붙": 7027,
      "뷰": 7028,
      "브": 7029,
      "븐": 7030,
      "블": 7031,
      "비": 7032,
      "빛": 7033,
      "빠": 7034,
      "빨": 7035,
      "뼈": 7036,
      "뿌": 7037,
      "뿐": 7038,
      "쁘": 7039,
      "사": 7040,
      "삭": 7041,
      "산": 7042,
      "살": 7043,
      "삶": 7044,
      "삼": 7045,
      "상": 7046,
      "새": 7047,
      "색": 7048,
      "생": 7049,
      "샵": 7050,
      "샷": 7051,
      "서": 7052,
      "석": 7053,
      "선": 7054,
      "설": 7055,
      "섬": 7056,
      "섭": 7057,
      "섯": 7058,
      "성": 7059,
      "세": 7060,
      "셔": 7061,
      "션": 7062,
      "소": 7063,
      "속": 7064,
      "손": 7065,
      "솔": 7066,
      "솜": 7067,
      "송": 7068,
      "수": 7069,
      "순": 7070,
      "술": 7071,
      "숨": 7072,
      "쉽": 7073,
      "슘": 7074,
      "스": 7075,
      "슨": 7076,
      "슬": 7077,
      "습": 7078,
      "승": 7079,
      "시": 7080,
      "식": 7081,
      "신": 7082,
      "실": 7083,
      "심": 7084,
      "십": 7085,
      "싶": 7086,
      "쌍": 7087,
      "써": 7088,
      "쓰": 7089,
      "씨": 7090,
      "씩": 7091,
      "씻": 7092,
      "아": 7093,
      "악": 7094,
      "안": 7095,
      "앉": 7096,
      "않": 7097,
      "알": 7098,
      "암": 7099,
      "압": 7100,
      "았": 7101,
      "앙": 7102,
      "애": 7103,
      "액": 7104,
      "야": 7105,
      "약": 7106,
      "양": 7107,
      "어": 7108,
      "억": 7109,
      "언": 7110,
      "얻": 7111,
      "얼": 7112,
      "엄": 7113,
      "업": 7114,
      "없": 7115,
      "엇": 7116,
      "었": 7117,
      "에": 7118,
      "여": 7119,
      "역": 7120,
      "연": 7121,
      "열": 7122,
      "염": 7123,
      "엿": 7124,
      "였": 7125,
      "영": 7126,
      "옆": 7127,
      "예": 7128,
      "오": 7129,
      "옥": 7130,
      "온": 7131,
      "올": 7132,
      "옮": 7133,
      "옵": 7134,
      "옷": 7135,
      "와": 7136,
      "완": 7137,
      "왔": 7138,
      "왜": 7139,
      "외": 7140,
      "요": 7141,
      "용": 7142,
      "우": 7143,
      "욱": 7144,
      "운": 7145,
      "울": 7146,
      "움": 7147,
      "웁": 7148,
      "워": 7149,
      "원": 7150,
      "월": 7151,
      "웨": 7152,
      "웹": 7153,
      "위": 7154,
      "윈": 7155,
      "유": 7156,
      "육": 7157,
      "윤": 7158,
      "율": 7159,
      "윷": 7160,
      "으": 7161,
      "은": 7162,
      "을": 7163,
      "음": 7164,
      "응": 7165,
      "의": 7166,
      "이": 7167,
      "익": 7168,
      "인": 7169,
      "일": 7170,
      "읽": 7171,
      "임": 7172,
      "입": 7173,
      "있": 7174,
      "자": 7175,
      "작": 7176,
      "잘": 7177,
      "잡": 7178,
      "잣": 7179,
      "장": 7180,
      "재": 7181,
      "쟁": 7182,
      "저": 7183,
      "적": 7184,
      "전": 7185,
      "절": 7186,
      "점": 7187,
      "접": 7188,
      "정": 7189,
      "제": 7190,
      "져": 7191,
      "졌": 7192,
      "조": 7193,
      "존": 7194,
      "졸": 7195,
      "좀": 7196,
      "종": 7197,
      "좋": 7198,
      "좌": 7199,
      "주": 7200,
      "죽": 7201,
      "준": 7202,
      "줄": 7203,
      "줍": 7204,
      "중": 7205,
      "쥬": 7206,
      "즈": 7207,
      "즉": 7208,
      "즘": 7209,
      "증": 7210,
      "지": 7211,
      "직": 7212,
      "진": 7213,
      "질": 7214,
      "집": 7215,
      "징": 7216,
      "짱": 7217,
      "째": 7218,
      "쩌": 7219,
      "쪽": 7220,
      "차": 7221,
      "착": 7222,
      "찬": 7223,
      "찮": 7224,
      "찰": 7225,
      "참": 7226,
      "창": 7227,
      "찾": 7228,
      "채": 7229,
      "책": 7230,
      "처": 7231,
      "척": 7232,
      "천": 7233,
      "철": 7234,
      "첨": 7235,
      "청": 7236,
      "체": 7237,
      "초": 7238,
      "촉": 7239,
      "총": 7240,
      "최": 7241,
      "추": 7242,
      "축": 7243,
      "춘": 7244,
      "출": 7245,
      "춤": 7246,
      "충": 7247,
      "취": 7248,
      "츠": 7249,
      "측": 7250,
      "층": 7251,
      "치": 7252,
      "침": 7253,
      "칭": 7254,
      "카": 7255,
      "칵": 7256,
      "칼": 7257,
      "캐": 7258,
      "커": 7259,
      "컴": 7260,
      "컷": 7261,
      "케": 7262,
      "켜": 7263,
      "코": 7264,
      "콘": 7265,
      "콜": 7266,
      "콩": 7267,
      "쿠": 7268,
      "퀴": 7269,
      "크": 7270,
      "큰": 7271,
      "클": 7272,
      "키": 7273,
      "킨": 7274,
      "킬": 7275,
      "킹": 7276,
      "타": 7277,
      "탄": 7278,
      "탈": 7279,
      "탐": 7280,
      "태": 7281,
      "택": 7282,
      "터": 7283,
      "털": 7284,
      "테": 7285,
      "텐": 7286,
      "텔": 7287,
      "템": 7288,
      "토": 7289,
      "톱": 7290,
      "통": 7291,
      "퇴": 7292,
      "툴": 7293,
      "튀": 7294,
      "트": 7295,
      "특": 7296,
      "튼": 7297,
      "틀": 7298,
      "티": 7299,
      "틱": 7300,
      "틴": 7301,
      "팀": 7302,
      "팁": 7303,
      "팅": 7304,
      "파": 7305,
      "판": 7306,
      "팽": 7307,
      "퍼": 7308,
      "페": 7309,
      "편": 7310,
      "평": 7311,
      "폐": 7312,
      "포": 7313,
      "폭": 7314,
      "폰": 7315,
      "폴": 7316,
      "폼": 7317,
      "표": 7318,
      "품": 7319,
      "풍": 7320,
      "퓨": 7321,
      "프": 7322,
      "픈": 7323,
      "플": 7324,
      "픔": 7325,
      "피": 7326,
      "필": 7327,
      "핏": 7328,
      "핑": 7329,
      "하": 7330,
      "학": 7331,
      "한": 7332,
      "할": 7333,
      "함": 7334,
      "합": 7335,
      "핫": 7336,
      "항": 7337,
      "해": 7338,
      "핵": 7339,
      "핸": 7340,
      "햅": 7341,
      "햇": 7342,
      "했": 7343,
      "행": 7344,
      "향": 7345,
      "허": 7346,
      "험": 7347,
      "헙": 7348,
      "헤": 7349,
      "헬": 7350,
      "혀": 7351,
      "혁": 7352,
      "현": 7353,
      "혈": 7354,
      "협": 7355,
      "형": 7356,
      "혜": 7357,
      "호": 7358,
      "혼": 7359,
      "홀": 7360,
      "홈": 7361,
      "홍": 7362,
      "화": 7363,
      "확": 7364,
      "환": 7365,
      "활": 7366,
      "황": 7367,
      "회": 7368,
      "획": 7369,
      "효": 7370,
      "후": 7371,
      "훈": 7372,
      "훌": 7373,
      "휴": 7374,
      "흑": 7375,
      "흔": 7376,
      "흡": 7377,
      "흥": 7378,
      "희": 7379,
      "흰": 7380,
      "히": 7381,
      "힌": 7382,
      "힐": 7383,
      "힘": 7384,
      "": 7385,
      "": 7386,
      "": 7387,
      "": 7388,
      "": 7389,
      "": 7390,
      "": 7391,
      "": 7392,
      "": 7393,
      "": 7394,
      "": 7395,
      "": 7396,
      "": 7397,
      "": 7398,
      "": 7399,
      "": 7400,
      "": 7401,
      "": 7402,
      "": 7403,
      "": 7404,
      "": 7405,
      "": 7406,
      "": 7407,
      "": 7408,
      "": 7409,
      "": 7410,
      "": 7411,
      "": 7412,
      "": 7413,
      "": 7414,
      "": 7415,
      "": 7416,
      "": 7417,
      "": 7418,
      "": 7419,
      "": 7420,
      "": 7421,
      "": 7422,
      "": 7423,
      "": 7424,
      "": 7425,
      "": 7426,
      "": 7427,
      "": 7428,
      "": 7429,
      "": 7430,
      "": 7431,
      "": 7432,
      "": 7433,
      "": 7434,
      "": 7435,
      "": 7436,
      "": 7437,
      "": 7438,
      "": 7439,
      "": 7440,
      "": 7441,
      "": 7442,
      "": 7443,
      "": 7444,
      "": 7445,
      "": 7446,
      "": 7447,
      "": 7448,
      "": 7449,
      "": 7450,
      "": 7451,
      "": 7452,
      "": 7453,
      "": 7454,
      "": 7455,
      "": 7456,
      "": 7457,
      "": 7458,
      "": 7459,
      "": 7460,
      "": 7461,
      "": 7462,
      "": 7463,
      "": 7464,
      "": 7465,
      "": 7466,
      "": 7467,
      "": 7468,
      "": 7469,
      "": 7470,
      "": 7471,
      "": 7472,
      "": 7473,
      "": 7474,
      "": 7475,
      "": 7476,
      "": 7477,
      "": 7478,
      "": 7479,
      "": 7480,
      "": 7481,
      "": 7482,
      "": 7483,
      "": 7484,
      "": 7485,
      "": 7486,
      "": 7487,
      "": 7488,
      "": 7489,
      "": 7490,
      "": 7491,
      "": 7492,
      "": 7493,
      "": 7494,
      "": 7495,
      "": 7496,
      "": 7497,
      "": 7498,
      "": 7499,
      "": 7500,
      "": 7501,
      "": 7502,
      "": 7503,
      "": 7504,
      "": 7505,
      "": 7506,
      "": 7507,
      "": 7508,
      "": 7509,
      "": 7510,
      "": 7511,
      "": 7512,
      "": 7513,
      "": 7514,
      "": 7515,
      "": 7516,
      "": 7517,
      "": 7518,
      "": 7519,
      "": 7520,
      "": 7521,
      "": 7522,
      "": 7523,
      "": 7524,
      "": 7525,
      "": 7526,
      "": 7527,
      "": 7528,
      "": 7529,
      "": 7530,
      "": 7531,
      "": 7532,
      "": 7533,
      "": 7534,
      "": 7535,
      "": 7536,
      "": 7537,
      "": 7538,
      "": 7539,
      "": 7540,
      "": 7541,
      "": 7542,
      "": 7543,
      "": 7544,
      "": 7545,
      "": 7546,
      "": 7547,
      "": 7548,
      "": 7549,
      "": 7550,
      "": 7551,
      "": 7552,
      "": 7553,
      "": 7554,
      "": 7555,
      "": 7556,
      "": 7557,
      "": 7558,
      "": 7559,
      "": 7560,
      "": 7561,
      "": 7562,
      "": 7563,
      "": 7564,
      "": 7565,
      "": 7566,
      "": 7567,
      "": 7568,
      "": 7569,
      "": 7570,
      "": 7571,
      "": 7572,
      "": 7573,
      "": 7574,
      "": 7575,
      "": 7576,
      "": 7577,
      "": 7578,
      "": 7579,
      "": 7580,
      "": 7581,
      "": 7582,
      "": 7583,
      "": 7584,
      "": 7585,
      "": 7586,
      "": 7587,
      "": 7588,
      "": 7589,
      "": 7590,
      "": 7591,
      "": 7592,
      "": 7593,
      "": 7594,
      "": 7595,
      "": 7596,
      "": 7597,
      "": 7598,
      "": 7599,
      "": 7600,
      "ﬀ": 7601,
      "ﬁ": 7602,
      "ﬂ": 7603,
      "ﬃ": 7604,
      "ﬄ": 7605,
      "ﬆ": 7606,
      "ﯽ": 7607,
      "﴾": 7608,
      "﴿": 7609,
      "﷐": 7610,
      "﷑": 7611,
      "﷛": 7612,
      "﷜": 7613,
      "﷞": 7614,
      "﷟": 7615,
      "﷠": 7616,
      "﷡": 7617,
      "﷢": 7618,
      "﷣": 7619,
      "﷤": 7620,
      "﷩": 7621,
      "﷫": 7622,
      "﷭": 7623,
      "﷮": 7624,
      "ﷺ": 7625,
      "ﷻ": 7626,
      "﷼": 7627,
      "﷽": 7628,
      "﷾": 7629,
      "︂": 7630,
      "︎": 7631,
      "️": 7632,
      "︳": 7633,
      "﹘": 7634,
      "﹥": 7635,
      "ﺃ": 7636,
      "ﺎ": 7637,
      "ﺗ": 7638,
      "ﻌ": 7639,
      "ﻛ": 7640,
      "ﻞ": 7641,
      "ﻟ": 7642,
      "﻿": 7643,
      "！": 7644,
      "＃": 7645,
      "（": 7646,
      "）": 7647,
      "＊": 7648,
      "＋": 7649,
      "，": 7650,
      "－": 7651,
      "．": 7652,
      "／": 7653,
      "１": 7654,
      "２": 7655,
      "３": 7656,
      "４": 7657,
      "５": 7658,
      "：": 7659,
      "；": 7660,
      "＜": 7661,
      "＝": 7662,
      "＞": 7663,
      "？": 7664,
      "Ａ": 7665,
      "［": 7666,
      "］": 7667,
      "ｃ": 7668,
      "ｇ": 7669,
      "ｌ": 7670,
      "ｔ": 7671,
      "｜": 7672,
      "～": 7673,
      "･": 7674,
      "ﾞ": 7675,
      "ﾟ": 7676,
      "￠": 7677,
      "￥": 7678,
      "￪": 7679,
      "￰": 7680,
      "￶": 7681,
      "￸": 7682,
      "￼": 7683,
      "�": 7684,
      "￿": 7685,
      "𐫀": 7686,
      "𐫏": 7687,
      "𐫖": 7688,
      "𐫗": 7689,
      "𐭀": 7690,
      "𐭉": 7691,
      "𐭌": 7692,
      "𐭍": 7693,
      "𐭠": 7694,
      "𐭩": 7695,
      "𐭬": 7696,
      "𐭭": 7697,
      "𐮀": 7698,
      "𐮈": 7699,
      "𐮋": 7700,
      "𐮌": 7701,
      "𑀅": 7702,
      "𑀈": 7703,
      "𑀫": 7704,
      "𑀮": 7705,
      "𑁆": 7706,
      "𑆑": 7707,
      "𑆰": 7708,
      "𑇀": 7709,
      "𑌅": 7710,
      "𑒁": 7711,
      "𑘚": 7712,
      "𑘦": 7713,
      "𑘲": 7714,
      "𑘻": 7715,
      "𑜁": 7716,
      "𑜂": 7717,
      "𑜃": 7718,
      "𑜉": 7719,
      "𑜏": 7720,
      "𑜓": 7721,
      "𑜢": 7722,
      "𑜤": 7723,
      "𑜪": 7724,
      "𑜫": 7725,
      "𒂠": 7726,
      "𒅴": 7727,
      "𓅃": 7728,
      "𓅇": 7729,
      "𓅋": 7730,
      "𓆘": 7731,
      "𔚺": 7732,
      "𔚻": 7733,
      "𝄞": 7734,
      "𝍯": 7735,
      "𝐀": 7736,
      "𝐁": 7737,
      "𝐂": 7738,
      "𝐃": 7739,
      "𝐄": 7740,
      "𝐆": 7741,
      "𝐇": 7742,
      "𝐈": 7743,
      "𝐊": 7744,
      "𝐋": 7745,
      "𝐌": 7746,
      "𝐍": 7747,
      "𝐎": 7748,
      "𝐏": 7749,
      "𝐑": 7750,
      "𝐒": 7751,
      "𝐓": 7752,
      "𝐔": 7753,
      "𝐕": 7754,
      "𝐖": 7755,
      "𝐚": 7756,
      "𝐛": 7757,
      "𝐜": 7758,
      "𝐝": 7759,
      "𝐞": 7760,
      "𝐟": 7761,
      "𝐠": 7762,
      "𝐡": 7763,
      "𝐢": 7764,
      "𝐤": 7765,
      "𝐥": 7766,
      "𝐦": 7767,
      "𝐧": 7768,
      "𝐨": 7769,
      "𝐩": 7770,
      "𝐫": 7771,
      "𝐬": 7772,
      "𝐭": 7773,
      "𝐮": 7774,
      "𝐯": 7775,
      "𝐰": 7776,
      "𝐱": 7777,
      "𝐲": 7778,
      "𝐴": 7779,
      "𝐵": 7780,
      "𝐶": 7781,
      "𝐸": 7782,
      "𝐺": 7783,
      "𝐻": 7784,
      "𝐿": 7785,
      "𝑀": 7786,
      "𝑁": 7787,
      "𝑃": 7788,
      "𝑄": 7789,
      "𝑅": 7790,
      "𝑆": 7791,
      "𝑇": 7792,
      "𝑈": 7793,
      "𝑉": 7794,
      "𝑎": 7795,
      "𝑐": 7796,
      "𝑑": 7797,
      "𝑒": 7798,
      "𝑓": 7799,
      "𝑖": 7800,
      "𝑛": 7801,
      "𝑜": 7802,
      "𝑝": 7803,
      "𝑟": 7804,
      "𝑡": 7805,
      "𝑤": 7806,
      "𝑥": 7807,
      "𝑦": 7808,
      "𝑨": 7809,
      "𝒂": 7810,
      "𝒄": 7811,
      "𝒅": 7812,
      "𝒆": 7813,
      "𝒇": 7814,
      "𝒉": 7815,
      "𝒊": 7816,
      "𝒍": 7817,
      "𝒎": 7818,
      "𝒏": 7819,
      "𝒐": 7820,
      "𝒑": 7821,
      "𝒓": 7822,
      "𝒔": 7823,
      "𝒕": 7824,
      "𝒾": 7825,
      "𝓀": 7826,
      "𝓁": 7827,
      "𝕏": 7828,
      "𝕸": 7829,
      "𝖔": 7830,
      "𝖘": 7831,
      "𝗔": 7832,
      "𝗕": 7833,
      "𝗖": 7834,
      "𝗗": 7835,
      "𝗘": 7836,
      "𝗙": 7837,
      "𝗚": 7838,
      "𝗛": 7839,
      "𝗜": 7840,
      "𝗝": 7841,
      "𝗞": 7842,
      "𝗟": 7843,
      "𝗠": 7844,
      "𝗡": 7845,
      "𝗢": 7846,
      "𝗣": 7847,
      "𝗤": 7848,
      "𝗥": 7849,
      "𝗦": 7850,
      "𝗧": 7851,
      "𝗨": 7852,
      "𝗩": 7853,
      "𝗪": 7854,
      "𝗬": 7855,
      "𝗭": 7856,
      "𝗮": 7857,
      "𝗯": 7858,
      "𝗰": 7859,
      "𝗱": 7860,
      "𝗲": 7861,
      "𝗳": 7862,
      "𝗴": 7863,
      "𝗵": 7864,
      "𝗶": 7865,
      "𝗸": 7866,
      "𝗹": 7867,
      "𝗺": 7868,
      "𝗻": 7869,
      "𝗼": 7870,
      "𝗽": 7871,
      "𝗿": 7872,
      "𝘀": 7873,
      "𝘁": 7874,
      "𝘂": 7875,
      "𝘃": 7876,
      "𝘄": 7877,
      "𝘅": 7878,
      "𝘆": 7879,
      "𝘇": 7880,
      "𝘈": 7881,
      "𝘋": 7882,
      "𝘑": 7883,
      "𝘓": 7884,
      "𝘙": 7885,
      "𝘢": 7886,
      "𝘣": 7887,
      "𝘤": 7888,
      "𝘥": 7889,
      "𝘦": 7890,
      "𝘨": 7891,
      "𝘩": 7892,
      "𝘪": 7893,
      "𝘭": 7894,
      "𝘯": 7895,
      "𝘰": 7896,
      "𝘱": 7897,
      "𝘳": 7898,
      "𝘴": 7899,
      "𝘵": 7900,
      "𝘶": 7901,
      "𝘷": 7902,
      "𝘹": 7903,
      "𝘺": 7904,
      "𝙇": 7905,
      "𝙍": 7906,
      "𝙏": 7907,
      "𝙐": 7908,
      "𝙔": 7909,
      "𝚋": 7910,
      "𝚚": 7911,
      "𝛃": 7912,
      "𝛼": 7913,
      "𝛽": 7914,
      "𝜃": 7915,
      "𝜇": 7916,
      "𝜋": 7917,
      "𝟭": 7918,
      "𝟮": 7919,
      "𝟯": 7920,
      "𝟰": 7921,
      "🂓": 7922,
      "🃏": 7923,
      "🃘": 7924,
      "🅰": 7925,
      "🅱": 7926,
      "🅳": 7927,
      "🅴": 7928,
      "🅷": 7929,
      "🅸": 7930,
      "🅺": 7931,
      "🅻": 7932,
      "🅼": 7933,
      "🅾": 7934,
      "🆁": 7935,
      "🆂": 7936,
      "🆅": 7937,
      "🆎": 7938,
      "🆒": 7939,
      "🆓": 7940,
      "🆕": 7941,
      "🆘": 7942,
      "🆙": 7943,
      "🆚": 7944,
      "🇦": 7945,
      "🇧": 7946,
      "🇨": 7947,
      "🇩": 7948,
      "🇪": 7949,
      "🇫": 7950,
      "🇬": 7951,
      "🇭": 7952,
      "🇮": 7953,
      "🇯": 7954,
      "🇰": 7955,
      "🇱": 7956,
      "🇲": 7957,
      "🇳": 7958,
      "🇵": 7959,
      "🇷": 7960,
      "🇸": 7961,
      "🇹": 7962,
      "🇺": 7963,
      "🇻": 7964,
      "🇼": 7965,
      "🇿": 7966,
      "🌀": 7967,
      "🌄": 7968,
      "🌅": 7969,
      "🌈": 7970,
      "🌉": 7971,
      "🌊": 7972,
      "🌋": 7973,
      "🌌": 7974,
      "🌍": 7975,
      "🌎": 7976,
      "🌏": 7977,
      "🌐": 7978,
      "🌑": 7979,
      "🌓": 7980,
      "🌕": 7981,
      "🌗": 7982,
      "🌘": 7983,
      "🌙": 7984,
      "🌚": 7985,
      "🌛": 7986,
      "🌜": 7987,
      "🌝": 7988,
      "🌞": 7989,
      "🌟": 7990,
      "🌠": 7991,
      "🌡": 7992,
      "🌤": 7993,
      "🌦": 7994,
      "🌧": 7995,
      "🌩": 7996,
      "🌬": 7997,
      "🌮": 7998,
      "🌰": 7999,
      "🌱": 8000,
      "🌲": 8001,
      "🌳": 8002,
      "🌴": 8003,
      "🌵": 8004,
      "🌶": 8005,
      "🌷": 8006,
      "🌸": 8007,
      "🌹": 8008,
      "🌺": 8009,
      "🌻": 8010,
      "🌼": 8011,
      "🌽": 8012,
      "🌾": 8013,
      "🌿": 8014,
      "🍀": 8015,
      "🍁": 8016,
      "🍂": 8017,
      "🍃": 8018,
      "🍄": 8019,
      "🍅": 8020,
      "🍇": 8021,
      "🍉": 8022,
      "🍊": 8023,
      "🍋": 8024,
      "🍌": 8025,
      "🍍": 8026,
      "🍎": 8027,
      "🍏": 8028,
      "🍑": 8029,
      "🍒": 8030,
      "🍓": 8031,
      "🍔": 8032,
      "🍖": 8033,
      "🍗": 8034,
      "🍚": 8035,
      "🍛": 8036,
      "🍜": 8037,
      "🍞": 8038,
      "🍠": 8039,
      "🍤": 8040,
      "🍥": 8041,
      "🍧": 8042,
      "🍪": 8043,
      "🍬": 8044,
      "🍭": 8045,
      "🍯": 8046,
      "🍰": 8047,
      "🍱": 8048,
      "🍲": 8049,
      "🍳": 8050,
      "🍴": 8051,
      "🍵": 8052,
      "🍶": 8053,
      "🍷": 8054,
      "🍸": 8055,
      "🍹": 8056,
      "🍺": 8057,
      "🍻": 8058,
      "🍼": 8059,
      "🍽": 8060,
      "🍾": 8061,
      "🍿": 8062,
      "🎀": 8063,
      "🎁": 8064,
      "🎂": 8065,
      "🎃": 8066,
      "🎄": 8067,
      "🎅": 8068,
      "🎈": 8069,
      "🎉": 8070,
      "🎊": 8071,
      "🎋": 8072,
      "🎎": 8073,
      "🎑": 8074,
      "🎒": 8075,
      "🎓": 8076,
      "🎖": 8077,
      "🎗": 8078,
      "🎙": 8079,
      "🎛": 8080,
      "🎞": 8081,
      "🎤": 8082,
      "🎥": 8083,
      "🎧": 8084,
      "🎨": 8085,
      "🎩": 8086,
      "🎫": 8087,
      "🎬": 8088,
      "🎭": 8089,
      "🎮": 8090,
      "🎯": 8091,
      "🎲": 8092,
      "🎴": 8093,
      "🎵": 8094,
      "🎶": 8095,
      "🎷": 8096,
      "🎸": 8097,
      "🎹": 8098,
      "🎻": 8099,
      "🎼": 8100,
      "🎾": 8101,
      "🏁": 8102,
      "🏃": 8103,
      "🏅": 8104,
      "🏆": 8105,
      "🏇": 8106,
      "🏈": 8107,
      "🏊": 8108,
      "🏋": 8109,
      "🏍": 8110,
      "🏏": 8111,
      "🏐": 8112,
      "🏑": 8113,
      "🏓": 8114,
      "🏔": 8115,
      "🏖": 8116,
      "🏘": 8117,
      "🏛": 8118,
      "🏞": 8119,
      "🏠": 8120,
      "🏡": 8121,
      "🏢": 8122,
      "🏥": 8123,
      "🏧": 8124,
      "🏨": 8125,
      "🏫": 8126,
      "🏭": 8127,
      "🏮": 8128,
      "🏯": 8129,
      "🏰": 8130,
      "🏳": 8131,
      "🏴": 8132,
      "🏵": 8133,
      "🏷": 8134,
      "🏸": 8135,
      "🏹": 8136,
      "🏻": 8137,
      "🏼": 8138,
      "🏽": 8139,
      "🏾": 8140,
      "🏿": 8141,
      "🐂": 8142,
      "🐃": 8143,
      "🐄": 8144,
      "🐅": 8145,
      "🐆": 8146,
      "🐇": 8147,
      "🐈": 8148,
      "🐉": 8149,
      "🐊": 8150,
      "🐋": 8151,
      "🐌": 8152,
      "🐍": 8153,
      "🐐": 8154,
      "🐑": 8155,
      "🐒": 8156,
      "🐓": 8157,
      "🐔": 8158,
      "🐕": 8159,
      "🐘": 8160,
      "🐚": 8161,
      "🐛": 8162,
      "🐜": 8163,
      "🐝": 8164,
      "🐞": 8165,
      "🐟": 8166,
      "🐠": 8167,
      "🐢": 8168,
      "🐣": 8169,
      "🐥": 8170,
      "🐦": 8171,
      "🐨": 8172,
      "🐬": 8173,
      "🐭": 8174,
      "🐮": 8175,
      "🐯": 8176,
      "🐰": 8177,
      "🐱": 8178,
      "🐲": 8179,
      "🐳": 8180,
      "🐶": 8181,
      "🐷": 8182,
      "🐸": 8183,
      "🐹": 8184,
      "🐻": 8185,
      "🐼": 8186,
      "🐾": 8187,
      "🐿": 8188,
      "👀": 8189,
      "👁": 8190,
      "👂": 8191,
      "👃": 8192,
      "👄": 8193,
      "👅": 8194,
      "👆": 8195,
      "👇": 8196,
      "👈": 8197,
      "👉": 8198,
      "👊": 8199,
      "👋": 8200,
      "👌": 8201,
      "👍": 8202,
      "👎": 8203,
      "👏": 8204,
      "👐": 8205,
      "👑": 8206,
      "👒": 8207,
      "👓": 8208,
      "👔": 8209,
      "👕": 8210,
      "👖": 8211,
      "👗": 8212,
      "👘": 8213,
      "👙": 8214,
      "👚": 8215,
      "👛": 8216,
      "👠": 8217,
      "👣": 8218,
      "👤": 8219,
      "👥": 8220,
      "👦": 8221,
      "👧": 8222,
      "👨": 8223,
      "👩": 8224,
      "👪": 8225,
      "👫": 8226,
      "👬": 8227,
      "👭": 8228,
      "👮": 8229,
      "👯": 8230,
      "👰": 8231,
      "👱": 8232,
      "👲": 8233,
      "👳": 8234,
      "👶": 8235,
      "👸": 8236,
      "👹": 8237,
      "👻": 8238,
      "👼": 8239,
      "👽": 8240,
      "👿": 8241,
      "💀": 8242,
      "💁": 8243,
      "💃": 8244,
      "💄": 8245,
      "💅": 8246,
      "💆": 8247,
      "💇": 8248,
      "💈": 8249,
      "💉": 8250,
      "💊": 8251,
      "💋": 8252,
      "💌": 8253,
      "💍": 8254,
      "💎": 8255,
      "💐": 8256,
      "💑": 8257,
      "💓": 8258,
      "💔": 8259,
      "💕": 8260,
      "💖": 8261,
      "💗": 8262,
      "💘": 8263,
      "💙": 8264,
      "💚": 8265,
      "💛": 8266,
      "💜": 8267,
      "💝": 8268,
      "💞": 8269,
      "💠": 8270,
      "💡": 8271,
      "💢": 8272,
      "💣": 8273,
      "💤": 8274,
      "💥": 8275,
      "💦": 8276,
      "💧": 8277,
      "💨": 8278,
      "💩": 8279,
      "💪": 8280,
      "💫": 8281,
      "💬": 8282,
      "💭": 8283,
      "💯": 8284,
      "💰": 8285,
      "💲": 8286,
      "💳": 8287,
      "💵": 8288,
      "💶": 8289,
      "💸": 8290,
      "💹": 8291,
      "💻": 8292,
      "💼": 8293,
      "💾": 8294,
      "💿": 8295,
      "📀": 8296,
      "📂": 8297,
      "📃": 8298,
      "📄": 8299,
      "📅": 8300,
      "📆": 8301,
      "📈": 8302,
      "📊": 8303,
      "📋": 8304,
      "📌": 8305,
      "📍": 8306,
      "📑": 8307,
      "📒": 8308,
      "📓": 8309,
      "📔": 8310,
      "📕": 8311,
      "📖": 8312,
      "📗": 8313,
      "📘": 8314,
      "📙": 8315,
      "📚": 8316,
      "📛": 8317,
      "📜": 8318,
      "📝": 8319,
      "📞": 8320,
      "📡": 8321,
      "📢": 8322,
      "📣": 8323,
      "📤": 8324,
      "📥": 8325,
      "📦": 8326,
      "📧": 8327,
      "📨": 8328,
      "📩": 8329,
      "📬": 8330,
      "📮": 8331,
      "📯": 8332,
      "📰": 8333,
      "📱": 8334,
      "📲": 8335,
      "📳": 8336,
      "📴": 8337,
      "📵": 8338,
      "📷": 8339,
      "📸": 8340,
      "📹": 8341,
      "📺": 8342,
      "📻": 8343,
      "📼": 8344,
      "📽": 8345,
      "📿": 8346,
      "🔄": 8347,
      "🔅": 8348,
      "🔆": 8349,
      "🔈": 8350,
      "🔉": 8351,
      "🔊": 8352,
      "🔋": 8353,
      "🔌": 8354,
      "🔍": 8355,
      "🔎": 8356,
      "🔐": 8357,
      "🔑": 8358,
      "🔒": 8359,
      "🔓": 8360,
      "🔔": 8361,
      "🔖": 8362,
      "🔗": 8363,
      "🔘": 8364,
      "🔙": 8365,
      "🔛": 8366,
      "🔜": 8367,
      "🔝": 8368,
      "🔞": 8369,
      "🔟": 8370,
      "🔢": 8371,
      "🔤": 8372,
      "🔥": 8373,
      "🔧": 8374,
      "🔩": 8375,
      "🔪": 8376,
      "🔫": 8377,
      "🔬": 8378,
      "🔭": 8379,
      "🔮": 8380,
      "🔯": 8381,
      "🔰": 8382,
      "🔱": 8383,
      "🔲": 8384,
      "🔳": 8385,
      "🔴": 8386,
      "🔵": 8387,
      "🔶": 8388,
      "🔷": 8389,
      "🔸": 8390,
      "🔹": 8391,
      "🔺": 8392,
      "🔻": 8393,
      "🔽": 8394,
      "🕉": 8395,
      "🕊": 8396,
      "🕋": 8397,
      "🕌": 8398,
      "🕑": 8399,
      "🕔": 8400,
      "🕖": 8401,
      "🕗": 8402,
      "🕘": 8403,
      "🕦": 8404,
      "🕧": 8405,
      "🕳": 8406,
      "🕵": 8407,
      "🕷": 8408,
      "🕸": 8409,
      "🕹": 8410,
      "🕺": 8411,
      "🖊": 8412,
      "🖋": 8413,
      "🖌": 8414,
      "🖍": 8415,
      "🖐": 8416,
      "🖕": 8417,
      "🖝": 8418,
      "🖤": 8419,
      "🖥": 8420,
      "🖨": 8421,
      "🖱": 8422,
      "🖼": 8423,
      "🗂": 8424,
      "🗑": 8425,
      "🗓": 8426,
      "🗝": 8427,
      "🗞": 8428,
      "🗣": 8429,
      "🗨": 8430,
      "🗯": 8431,
      "🗳": 8432,
      "🗸": 8433,
      "🗺": 8434,
      "🗻": 8435,
      "🗽": 8436,
      "😀": 8437,
      "😁": 8438,
      "😂": 8439,
      "😃": 8440,
      "😄": 8441,
      "😅": 8442,
      "😆": 8443,
      "😇": 8444,
      "😈": 8445,
      "😉": 8446,
      "😊": 8447,
      "😋": 8448,
      "😌": 8449,
      "😍": 8450,
      "😎": 8451,
      "😏": 8452,
      "😐": 8453,
      "😑": 8454,
      "😒": 8455,
      "😓": 8456,
      "😔": 8457,
      "😕": 8458,
      "😖": 8459,
      "😗": 8460,
      "😘": 8461,
      "😙": 8462,
      "😚": 8463,
      "😛": 8464,
      "😜": 8465,
      "😝": 8466,
      "😞": 8467,
      "😟": 8468,
      "😠": 8469,
      "😡": 8470,
      "😢": 8471,
      "😣": 8472,
      "😤": 8473,
      "😥": 8474,
      "😦": 8475,
      "😧": 8476,
      "😨": 8477,
      "😩": 8478,
      "😪": 8479,
      "😬": 8480,
      "😭": 8481,
      "😮": 8482,
      "😯": 8483,
      "😰": 8484,
      "😱": 8485,
      "😲": 8486,
      "😳": 8487,
      "😴": 8488,
      "😵": 8489,
      "😶": 8490,
      "😷": 8491,
      "😸": 8492,
      "😹": 8493,
      "😺": 8494,
      "😼": 8495,
      "😿": 8496,
      "🙀": 8497,
      "🙁": 8498,
      "🙂": 8499,
      "🙃": 8500,
      "🙄": 8501,
      "🙅": 8502,
      "🙆": 8503,
      "🙇": 8504,
      "🙈": 8505,
      "🙊": 8506,
      "🙋": 8507,
      "🙌": 8508,
      "🙎": 8509,
      "🙏": 8510,
      "🚀": 8511,
      "🚁": 8512,
      "🚄": 8513,
      "🚆": 8514,
      "🚇": 8515,
      "🚊": 8516,
      "🚑": 8517,
      "🚒": 8518,
      "🚕": 8519,
      "🚗": 8520,
      "🚘": 8521,
      "🚙": 8522,
      "🚚": 8523,
      "🚛": 8524,
      "🚜": 8525,
      "🚢": 8526,
      "🚦": 8527,
      "🚧": 8528,
      "🚨": 8529,
      "🚩": 8530,
      "🚫": 8531,
      "🚬": 8532,
      "🚭": 8533,
      "🚲": 8534,
      "🚴": 8535,
      "🚶": 8536,
      "🚺": 8537,
      "🚻": 8538,
      "🚽": 8539,
      "🚿": 8540,
      "🛁": 8541,
      "🛄": 8542,
      "🛈": 8543,
      "🛌": 8544,
      "🛍": 8545,
      "🛑": 8546,
      "🛒": 8547,
      "🛕": 8548,
      "🛠": 8549,
      "🛡": 8550,
      "🛢": 8551,
      "🛣": 8552,
      "🛤": 8553,
      "🛫": 8554,
      "🛰": 8555,
      "🛵": 8556,
      "🝒": 8557,
      "🟔": 8558,
      "🟠": 8559,
      "🟡": 8560,
      "🟢": 8561,
      "🟣": 8562,
      "🟥": 8563,
      "🟦": 8564,
      "🟨": 8565,
      "🟪": 8566,
      "🢔": 8567,
      "🤍": 8568,
      "🤎": 8569,
      "🤐": 8570,
      "🤑": 8571,
      "🤒": 8572,
      "🤓": 8573,
      "🤔": 8574,
      "🤕": 8575,
      "🤖": 8576,
      "🤗": 8577,
      "🤘": 8578,
      "🤙": 8579,
      "🤛": 8580,
      "🤜": 8581,
      "🤝": 8582,
      "🤞": 8583,
      "🤟": 8584,
      "🤡": 8585,
      "🤢": 8586,
      "🤣": 8587,
      "🤤": 8588,
      "🤥": 8589,
      "🤦": 8590,
      "🤧": 8591,
      "🤨": 8592,
      "🤩": 8593,
      "🤪": 8594,
      "🤫": 8595,
      "🤬": 8596,
      "🤭": 8597,
      "🤮": 8598,
      "🤯": 8599,
      "🤰": 8600,
      "🤱": 8601,
      "🤲": 8602,
      "🤳": 8603,
      "🤴": 8604,
      "🤵": 8605,
      "🤷": 8606,
      "🤸": 8607,
      "🤼": 8608,
      "🥀": 8609,
      "🥁": 8610,
      "🥂": 8611,
      "🥃": 8612,
      "🥄": 8613,
      "🥇": 8614,
      "🥈": 8615,
      "🥉": 8616,
      "🥊": 8617,
      "🥑": 8618,
      "🥒": 8619,
      "🥓": 8620,
      "🥔": 8621,
      "🥖": 8622,
      "🥗": 8623,
      "🥚": 8624,
      "🥛": 8625,
      "🥜": 8626,
      "🥞": 8627,
      "🥟": 8628,
      "🥡": 8629,
      "🥢": 8630,
      "🥣": 8631,
      "🥤": 8632,
      "🥦": 8633,
      "🥩": 8634,
      "🥫": 8635,
      "🥬": 8636,
      "🥰": 8637,
      "🥳": 8638,
      "🥴": 8639,
      "🥵": 8640,
      "🥶": 8641,
      "🥷": 8642,
      "🥺": 8643,
      "🥼": 8644,
      "🦀": 8645,
      "🦁": 8646,
      "🦂": 8647,
      "🦃": 8648,
      "🦅": 8649,
      "🦆": 8650,
      "🦈": 8651,
      "🦉": 8652,
      "🦊": 8653,
      "🦋": 8654,
      "🦌": 8655,
      "🦍": 8656,
      "🦏": 8657,
      "🦒": 8658,
      "🦔": 8659,
      "🦕": 8660,
      "🦟": 8661,
      "🦠": 8662,
      "🦢": 8663,
      "🦰": 8664,
      "🦱": 8665,
      "🦴": 8666,
      "🦷": 8667,
      "🦸": 8668,
      "🦺": 8669,
      "🦽": 8670,
      "🦾": 8671,
      "🧀": 8672,
      "🧁": 8673,
      "🧂": 8674,
      "🧅": 8675,
      "🧊": 8676,
      "🧏": 8677,
      "🧐": 8678,
      "🧑": 8679,
      "🧕": 8680,
      "🧘": 8681,
      "🧙": 8682,
      "🧚": 8683,
      "🧛": 8684,
      "🧜": 8685,
      "🧞": 8686,
      "🧟": 8687,
      "🧠": 8688,
      "🧡": 8689,
      "🧢": 8690,
      "🧤": 8691,
      "🧥": 8692,
      "🧨": 8693,
      "🧩": 8694,
      "🧪": 8695,
      "🧫": 8696,
      "🧬": 8697,
      "🧭": 8698,
      "🧮": 8699,
      "🧳": 8700,
      "🧴": 8701,
      "🧵": 8702,
      "🧿": 8703,
      "🩰": 8704,
      "🩸": 8705,
      "🩹": 8706,
      "🩺": 8707,
      "🪀": 8708,
      "🪄": 8709,
      "🪐": 8710,
      "🪒": 8711,
      "🪓": 8712,
      "🪔": 8713,
      "🪖": 8714,
      "🪙": 8715,
      "🪢": 8716,
      "🪴": 8717,
      "🪶": 8718,
      "🫀": 8719,
      "🫁": 8720,
      "🫣": 8721,
      "𠄶": 8722,
      "𠇊": 8723,
      "𠇌": 8724,
      "𠇚": 8725,
      "𧿘": 8726,
      "𾈀": 8727,
      "𾘀": 8728,
      "󈧒": 8729,
      "󈨦": 8730,
      "󈨧": 8731,
      "󌌺": 8732,
      "󌌼": 8733,
      "󠁢": 8734,
      "󠁥": 8735,
      "󠁧": 8736,
      "󠁬": 8737,
      "󠁮": 8738,
      "󠁳": 8739,
      "󠁷": 8740,
      "󠁿": 8741,
      "󠄘": 8742,
      "󠆿": 8743,
      "􀁫": 8744,
      "􀂅": 8745,
      "􀆧": 8746,
      "्य": 8747,
      "th": 8748,
      "in": 8749,
      "்க": 8750,
      "an": 8751,
      "्र": 8752,
      "er": 8753,
      "ार": 8754,
      "்த": 8755,
      "on": 8756,
      "re": 8757,
      "्या": 8758,
      "the": 8759,
      "at": 8760,
      "ம்": 8761,
      "en": 8762,
      "ന്": 8763,
      "को": 8764,
      "का": 8765,
      "ने": 8766,
      "र्": 8767,
      "es": 8768,
      "or": 8769,
      "য়": 8770,
      "al": 8771,
      "मा": 8772,
      "ക്": 8773,
      "یں": 8774,
      "ன்": 8775,
      "ல்": 8776,
      "के": 8777,
      "ത്": 8778,
      "is": 8779,
      "ان": 8780,
      "ला": 8781,
      "க்க": 8782,
      "ले": 8783,
      "મા": 8784,
      "ना": 8785,
      "ing": 8786,
      "ার": 8787,
      "स्": 8788,
      "and": 8789,
      "ou": 8790,
      "या": 8791,
      "ed": 8792,
      "to": 8793,
      "்ட": 8794,
      "ता": 8795,
      "کی": 8796,
      "ar": 8797,
      "of": 8798,
      "த்த": 8799,
      "்ப": 8800,
      "it": 8801,
      "ని": 8802,
      "کے": 8803,
      "ும்": 8804,
      "ور": 8805,
      "प्र": 8806,
      "क्": 8807,
      "ార": 8808,
      "ਾਂ": 8809,
      "్ర": 8810,
      "वा": 8811,
      "as": 8812,
      "ic": 8813,
      "ள்": 8814,
      "कर": 8815,
      "ion": 8816,
      "वि": 8817,
      "న్": 8818,
      "ிய": 8819,
      "ತ್": 8820,
      "ের": 8821,
      "ക്ക": 8822,
      "ಲ್": 8823,
      "ന്ന": 8824,
      "न्": 8825,
      "ને": 8826,
      "વા": 8827,
      "सा": 8828,
      "मे": 8829,
      "है": 8830,
      "रा": 8831,
      "து": 8832,
      "ர்": 8833,
      "ரு": 8834,
      "స్": 8835,
      "্য": 8836,
      "le": 8837,
      "ப்ப": 8838,
      "্র": 8839,
      "തി": 8840,
      "્ય": 8841,
      "ار": 8842,
      "ந்த": 8843,
      "ನ್": 8844,
      "ના": 8845,
      "st": 8846,
      "नि": 8847,
      "ال": 8848,
      "ro": 8849,
      "से": 8850,
      "میں": 8851,
      "ਦੇ": 8852,
      "ಿದ": 8853,
      "ర్": 8854,
      "نے": 8855,
      "ہے": 8856,
      "ent": 8857,
      "ಾರ": 8858,
      "ட்ட": 8859,
      "اس": 8860,
      "ில்": 8861,
      "ান": 8862,
      "ಲ್ಲ": 8863,
      "हे": 8864,
      "્ર": 8865,
      "છે": 8866,
      "ంద": 8867,
      "માં": 8868,
      "പ്": 8869,
      "कार": 8870,
      "کر": 8871,
      "की": 8872,
      "లు": 8873,
      "ਾਰ": 8874,
      "ही": 8875,
      "पा": 8876,
      "ಂದ": 8877,
      "്ട": 8878,
      "ित": 8879,
      "ાર": 8880,
      "ും": 8881,
      "में": 8882,
      "ac": 8883,
      "లో": 8884,
      "हा": 8885,
      "ಾಗ": 8886,
      "कि": 8887,
      "کو": 8888,
      "್ರ": 8889,
      "కు": 8890,
      "اور": 8891,
      "ನ್ನ": 8892,
      "ਤੇ": 8893,
      "ರು": 8894,
      "کہ": 8895,
      "یا": 8896,
      "ತ್ತ": 8897,
      "وں": 8898,
      "ની": 8899,
      "ਵਿ": 8900,
      "ங்க": 8901,
      "ती": 8902,
      "سے": 8903,
      "il": 8904,
      "हो": 8905,
      "ಗಳ": 8906,
      "el": 8907,
      "ਦੀ": 8908,
      "ام": 8909,
      "ைய": 8910,
      "ਸ਼": 8911,
      "ति": 8912,
      "ું": 8913,
      "வி": 8914,
      "दे": 8915,
      "पर": 8916,
      "om": 8917,
      "ಿಸ": 8918,
      "কর": 8919,
      "त्र": 8920,
      "क्ष": 8921,
      "કર": 8922,
      "नी": 8923,
      "जा": 8924,
      "্ত": 8925,
      "్య": 8926,
      "ہیں": 8927,
      "se": 8928,
      "सं": 8929,
      "ಕ್": 8930,
      "യി": 8931,
      "ते": 8932,
      "ات": 8933,
      "ਹੈ": 8934,
      "ली": 8935,
      "लि": 8936,
      "ರ್": 8937,
      "ائ": 8938,
      "ను": 8939,
      "ch": 8940,
      "മാ": 8941,
      "ంచ": 8942,
      "സ്": 8943,
      "క్": 8944,
      "தி": 8945,
      "್ಯ": 8946,
      "کا": 8947,
      "તે": 8948,
      "बा": 8949,
      "दि": 8950,
      "ాల": 8951,
      "ாக": 8952,
      "ਦਾ": 8953,
      "ہو": 8954,
      "ਕਿ": 8955,
      "ों": 8956,
      "चा": 8957,
      "ുന്ന": 8958,
      "ੂੰ": 8959,
      "for": 8960,
      "لی": 8961,
      "ങ്": 8962,
      "he": 8963,
      "ಲ್ಲಿ": 8964,
      "বি": 8965,
      "ری": 8966,
      "be": 8967,
      "ಸ್": 8968,
      "त्": 8969,
      "ਨੂੰ": 8970,
      "గా": 8971,
      "ਕਰ": 8972,
      "ਾਲ": 8973,
      "്യ": 8974,
      "নি": 8975,
      "বা": 8976,
      "రి": 8977,
      "ve": 8978,
      "న్న": 8979,
      "ನ್ನು": 8980,
      "ಗೆ": 8981,
      "ച്": 8982,
      "য়ে": 8983,
      "de": 8984,
      "ای": 8985,
      "था": 8986,
      "ట్": 8987,
      "ct": 8988,
      "ol": 8989,
      "તા": 8990,
      "ation": 8991,
      "ਿਆ": 8992,
      "று": 8993,
      "20": 8994,
      "म्": 8995,
      "কে": 8996,
      "im": 8997,
      "ప్ర": 8998,
      "गर": 8999,
      "च्या": 9000,
      "गा": 9001,
      "രി": 9002,
      "ത്തി": 9003,
      "કે": 9004,
      "मु": 9005,
      "दा": 9006,
      "ow": 9007,
      "ற்": 9008,
      "ின்": 9009,
      "লে": 9010,
      "સ્": 9011,
      "are": 9012,
      "டு": 9013,
      "వి": 9014,
      "आहे": 9015,
      "ly": 9016,
      "್ದ": 9017,
      "ર્": 9018,
      "ారు": 9019,
      "ছে": 9020,
      "su": 9021,
      "വി": 9022,
      "ಿಯ": 9023,
      "રા": 9024,
      "ர்க": 9025,
      "ంది": 9026,
      "am": 9027,
      "மு": 9028,
      "پر": 9029,
      "ھی": 9030,
      "ಮಾ": 9031,
      "ig": 9032,
      "ల్": 9033,
      "বে": 9034,
      "প্র": 9035,
      "നി": 9036,
      "ad": 9037,
      "తు": 9038,
      "यो": 9039,
      "دی": 9040,
      "க்கு": 9041,
      "ട്ട": 9042,
      "ண்ட": 9043,
      "ೆಯ": 9044,
      "ത്ത": 9045,
      "ങ്ങ": 9046,
      "भा": 9047,
      "तर": 9048,
      "তি": 9049,
      "তে": 9050,
      "ल्": 9051,
      "ிற": 9052,
      "റ്": 9053,
      "िक": 9054,
      "না": 9055,
      "और": 9056,
      "અને": 9057,
      "লা": 9058,
      "त्या": 9059,
      "pro": 9060,
      "പ്പ": 9061,
      "ab": 9062,
      "થી": 9063,
      "ੋਂ": 9064,
      "చే": 9065,
      "மா": 9066,
      "ir": 9067,
      "ಿಕ": 9068,
      "੍ਰ": 9069,
      "रु": 9070,
      "ver": 9071,
      "ter": 9072,
      "લા": 9073,
      "কা": 9074,
      "కి": 9075,
      "you": 9076,
      "డు": 9077,
      "টি": 9078,
      "ce": 9079,
      "चे": 9080,
      "con": 9081,
      "that": 9082,
      "ள்ள": 9083,
      "ay": 9084,
      "्ट": 9085,
      "স্": 9086,
      "ून": 9087,
      "ल्या": 9088,
      "ണ്": 9089,
      "డి": 9090,
      "టి": 9091,
      "்ச": 9092,
      "हु": 9093,
      "wh": 9094,
      "id": 9095,
      "த்து": 9096,
      "ரி": 9097,
      "ച്ച": 9098,
      "اب": 9099,
      "ur": 9100,
      "می": 9101,
      "un": 9102,
      "டி": 9103,
      "ਅਤੇ": 9104,
      "ುವ": 9105,
      "মা": 9106,
      "ಿದ್ದ": 9107,
      "ರಿ": 9108,
      "ंग": 9109,
      "ची": 9110,
      "us": 9111,
      "et": 9112,
      "સા": 9113,
      "তা": 9114,
      "ot": 9115,
      "ag": 9116,
      "ਆਂ": 9117,
      "ith": 9118,
      "ற்ற": 9119,
      "वे": 9120,
      "सु": 9121,
      "एक": 9122,
      "com": 9123,
      "ವಿ": 9124,
      "ਹੀ": 9125,
      "हि": 9126,
      "ಪ್ರ": 9127,
      "செ": 9128,
      "કો": 9129,
      "पु": 9130,
      "கு": 9131,
      "র্": 9132,
      "ണ്ട": 9133,
      "द्": 9134,
      "नु": 9135,
      "సి": 9136,
      "نا": 9137,
      "शा": 9138,
      "கா": 9139,
      "ਹੋ": 9140,
      "ul": 9141,
      "ut": 9142,
      "என்": 9143,
      "ন্": 9144,
      "ਜ਼": 9145,
      "ുക": 9146,
      "మా": 9147,
      "वर": 9148,
      "سی": 9149,
      "ನಿ": 9150,
      "ਿੰ": 9151,
      "ਤਾ": 9152,
      "मि": 9153,
      "یہ": 9154,
      "एको": 9155,
      "ప్": 9156,
      "रो": 9157,
      "പ്ര": 9158,
      "ment": 9159,
      "નો": 9160,
      "லை": 9161,
      "ण्या": 9162,
      "್ಟ": 9163,
      "ੱਚ": 9164,
      "ਤੀ": 9165,
      "सी": 9166,
      "The": 9167,
      "రు": 9168,
      "ਨੇ": 9169,
      "வா": 9170,
      "রা": 9171,
      "اہ": 9172,
      "ടെ": 9173,
      "সা": 9174,
      "વિ": 9175,
      "res": 9176,
      "हैं": 9177,
      "ਰਾ": 9178,
      "త్": 9179,
      "if": 9180,
      "ক্": 9181,
      "क्र": 9182,
      "with": 9183,
      "પ્ર": 9184,
      "తి": 9185,
      "રી": 9186,
      "op": 9187,
      "تی": 9188,
      "ਹਾ": 9189,
      "ਕੀ": 9190,
      "ਸੀ": 9191,
      "mo": 9192,
      "ક્": 9193,
      "ex": 9194,
      "ئے": 9195,
      "ിയ": 9196,
      "نی": 9197,
      "tr": 9198,
      "యి": 9199,
      "ap": 9200,
      "ध्य": 9201,
      "ਜਾ": 9202,
      "भी": 9203,
      "ುತ್ತ": 9204,
      "ില": 9205,
      "ంట": 9206,
      "सम": 9207,
      "pl": 9208,
      "ers": 9209,
      "री": 9210,
      "ంత": 9211,
      "দে": 9212,
      "કા": 9213,
      "கள": 9214,
      "பா": 9215,
      "بھی": 9216,
      "দি": 9217,
      "ess": 9218,
      "లి": 9219,
      "రా": 9220,
      "্যা": 9221,
      "لا": 9222,
      "ುದ": 9223,
      "تا": 9224,
      "્યા": 9225,
      "కా": 9226,
      "ತಿ": 9227,
      "ಕೆ": 9228,
      "য়া": 9229,
      "મે": 9230,
      "जि": 9231,
      "രു": 9232,
      "વી": 9233,
      "પર": 9234,
      "णा": 9235,
      "इस": 9236,
      "ಾಗಿ": 9237,
      "ড়": 9238,
      "em": 9239,
      "ിക്ക": 9240,
      "ਵਿੱਚ": 9241,
      "सि": 9242,
      "ન્": 9243,
      "ટે": 9244,
      "வே": 9245,
      "गर्": 9246,
      "পর": 9247,
      "ਰੀ": 9248,
      "ts": 9249,
      "ain": 9250,
      "can": 9251,
      "নে": 9252,
      "ാണ്": 9253,
      "00": 9254,
      "تے": 9255,
      "رو": 9256,
      "నా": 9257,
      "க்": 9258,
      "పు": 9259,
      "ில": 9260,
      "تھ": 9261,
      "వా": 9262,
      "दी": 9263,
      "लो": 9264,
      "ئی": 9265,
      "वार": 9266,
      "જે": 9267,
      "ਹਨ": 9268,
      "धा": 9269,
      "પણ": 9270,
      "pe": 9271,
      "ne": 9272,
      "ਇਸ": 9273,
      "सर": 9274,
      "റ്റ": 9275,
      "ies": 9276,
      "ਿੱ": 9277,
      "ਪ੍ਰ": 9278,
      "ther": 9279,
      "તો": 9280,
      "ਵਾ": 9281,
      "اد": 9282,
      "ப்": 9283,
      "്ല": 9284,
      "ष्ट": 9285,
      "தா": 9286,
      "ਸਾ": 9287,
      "હે": 9288,
      "ಿದೆ": 9289,
      "पू": 9290,
      "போ": 9291,
      "నే": 9292,
      "ட்டு": 9293,
      "रू": 9294,
      "ਲਾ": 9295,
      "मी": 9296,
      "جو": 9297,
      "ate": 9298,
      "ಂತ": 9299,
      "ਨਾ": 9300,
      "ity": 9301,
      "করে": 9302,
      "ది": 9303,
      "পা": 9304,
      "19": 9305,
      "all": 9306,
      "ந்து": 9307,
      "स्था": 9308,
      "ಂದು": 9309,
      "ایک": 9310,
      "देश": 9311,
      "कु": 9312,
      "आप": 9313,
      "ক্ষ": 9314,
      "সে": 9315,
      "ਕੇ": 9316,
      "યા": 9317,
      "کھ": 9318,
      "od": 9319,
      "ভা": 9320,
      "লি": 9321,
      "iv": 9322,
      "ிர": 9323,
      "ये": 9324,
      "ನಾ": 9325,
      "اپ": 9326,
      "તી": 9327,
      "வு": 9328,
      "जी": 9329,
      "கொ": 9330,
      "ತ್ತು": 9331,
      "ਤੋਂ": 9332,
      "વે": 9333,
      "ਕਾਰ": 9334,
      "ார்": 9335,
      "تو": 9336,
      "तो": 9337,
      "ak": 9338,
      "लिए": 9339,
      "ਵੀ": 9340,
      "ill": 9341,
      "মি": 9342,
      "शि": 9343,
      "ड़": 9344,
      "यां": 9345,
      "ವಾ": 9346,
      "জন": 9347,
      "ರಾ": 9348,
      "లా": 9349,
      "بی": 9350,
      "நா": 9351,
      "సు": 9352,
      "ರೆ": 9353,
      "પા": 9354,
      "so": 9355,
      "గు": 9356,
      "ించ": 9357,
      "કાર": 9358,
      "ਹਾਂ": 9359,
      "अस": 9360,
      "ము": 9361,
      "लाई": 9362,
      "وہ": 9363,
      "धि": 9364,
      "ार्": 9365,
      "ండ": 9366,
      "वी": 9367,
      "खा": 9368,
      "সম": 9369,
      "ార్": 9370,
      "राज": 9371,
      "ਹਿ": 9372,
      "செய": 9373,
      "കാ": 9374,
      "ద్": 9375,
      "ਲਈ": 9376,
      "णि": 9377,
      "lo": 9378,
      "ിൽ": 9379,
      "est": 9380,
      "श्": 9381,
      "نہیں": 9382,
      "দের": 9383,
      "ha": 9384,
      "ல்ல": 9385,
      "ಂಡ": 9386,
      "igh": 9387,
      "ர்கள்": 9388,
      "രാ": 9389,
      "కో": 9390,
      "act": 9391,
      "ive": 9392,
      "அவ": 9393,
      "ంగా": 9394,
      "रे": 9395,
      "হা": 9396,
      "কার": 9397,
      "वर्": 9398,
      "qu": 9399,
      "இரு": 9400,
      "്ള": 9401,
      "చి": 9402,
      "ള്ള": 9403,
      "ست": 9404,
      "റെ": 9405,
      "લી": 9406,
      "ial": 9407,
      "टी": 9408,
      "কি": 9409,
      "उन": 9410,
      "பெ": 9411,
      "ਨਾਲ": 9412,
      "व्य": 9413,
      "our": 9414,
      "ंद": 9415,
      "Th": 9416,
      "کیا": 9417,
      "te": 9418,
      "ங்கள": 9419,
      "જા": 9420,
      "తో": 9421,
      "ारी": 9422,
      "per": 9423,
      "आणि": 9424,
      "دو": 9425,
      "മു": 9426,
      "निर्": 9427,
      "we": 9428,
      "sh": 9429,
      "ہی": 9430,
      "ంలో": 9431,
      "ದಲ್ಲಿ": 9432,
      "னை": 9433,
      "றி": 9434,
      "ಕ್ಷ": 9435,
      "હો": 9436,
      "oun": 9437,
      "വാ": 9438,
      "रि": 9439,
      "ায়": 9440,
      "சி": 9441,
      "پی": 9442,
      "ಕಾರ": 9443,
      "െയ": 9444,
      "ant": 9445,
      "ठी": 9446,
      "In": 9447,
      "ಮಾಡ": 9448,
      "ான": 9449,
      "చ్": 9450,
      "மி": 9451,
      "अप": 9452,
      "مل": 9453,
      "ুর": 9454,
      "്ര": 9455,
      "by": 9456,
      "ਵੇ": 9457,
      "rom": 9458,
      "ால்": 9459,
      "టు": 9460,
      "సం": 9461,
      "گر": 9462,
      "ਮਾ": 9463,
      "શે": 9464,
      "ಿನ": 9465,
      "ત્ર": 9466,
      "பு": 9467,
      "లే": 9468,
      "ಕಾ": 9469,
      "रहे": 9470,
      "ਹੁ": 9471,
      "out": 9472,
      "ಸಂ": 9473,
      "கள்": 9474,
      "ಅವ": 9475,
      "um": 9476,
      "స్తు": 9477,
      "ുന്നു": 9478,
      "ക്ക്": 9479,
      "ंड": 9480,
      "িত": 9481,
      "ഞ്": 9482,
      "മ്": 9483,
      "ங்கள்": 9484,
      "art": 9485,
      "దు": 9486,
      "मान": 9487,
      "এক": 9488,
      "وال": 9489,
      "ക്കാ": 9490,
      "ائی": 9491,
      "ಗಳು": 9492,
      "డా": 9493,
      "ন্ত": 9494,
      "स्थ": 9495,
      "નું": 9496,
      "ਵਿਚ": 9497,
      "જો": 9498,
      "న్ని": 9499,
      "ങ്ങള": 9500,
      "ச்ச": 9501,
      "வர": 9502,
      "ষ্": 9503,
      "కొ": 9504,
      "માટે": 9505,
      "टा": 9506,
      "টা": 9507,
      "उप": 9508,
      "हीं": 9509,
      "పా": 9510,
      "त्य": 9511,
      "ನೆ": 9512,
      "ಮತ್ತು": 9513,
      "fe": 9514,
      "झा": 9515,
      "ੁੱ": 9516,
      "લો": 9517,
      "دہ": 9518,
      "ಟ್ಟ": 9519,
      "مو": 9520,
      "ist": 9521,
      "ग्र": 9522,
      "गरे": 9523,
      "રે": 9524,
      "wor": 9525,
      "રો": 9526,
      "लाग": 9527,
      "ಲು": 9528,
      "ٹی": 9529,
      "ிரு": 9530,
      "੍ਹਾਂ": 9531,
      "ടു": 9532,
      "த்": 9533,
      "जे": 9534,
      "जन": 9535,
      "मो": 9536,
      "ിച്ച": 9537,
      "दु": 9538,
      "લે": 9539,
      "from": 9540,
      "તિ": 9541,
      "ਨੀ": 9542,
      "থা": 9543,
      "மை": 9544,
      "್ಮ": 9545,
      "ਕਾ": 9546,
      "పో": 9547,
      "ere": 9548,
      "your": 9549,
      "po": 9550,
      "ld": 9551,
      "ছি": 9552,
      "ന്ന്": 9553,
      "ുടെ": 9554,
      "یر": 9555,
      "ష్": 9556,
      "કરી": 9557,
      "du": 9558,
      "ભા": 9559,
      "لہ": 9560,
      "cl": 9561,
      "ಿಗೆ": 9562,
      "ரா": 9563,
      "ರುವ": 9564,
      "من": 9565,
      "ന്റെ": 9566,
      "ക്ഷ": 9567,
      "స్త": 9568,
      "ಕು": 9569,
      "സി": 9570,
      "সি": 9571,
      "మీ": 9572,
      "வை": 9573,
      "ായി": 9574,
      "ical": 9575,
      "ர்கள": 9576,
      "اک": 9577,
      "ंत": 9578,
      "ਬਾ": 9579,
      "ંગ": 9580,
      "कार्य": 9581,
      "இந்த": 9582,
      "بر": 9583,
      "দ্": 9584,
      "ਜਿ": 9585,
      "ਣਾ": 9586,
      "تع": 9587,
      "நி": 9588,
      "యా": 9589,
      "स्त": 9590,
      "్యా": 9591,
      "प्रति": 9592,
      "സം": 9593,
      "ੁਰ": 9594,
      "ारा": 9595,
      "ನೀ": 9596,
      "प्": 9597,
      "ങ്ങൾ": 9598,
      "த்தில்": 9599,
      "దా": 9600,
      "सो": 9601,
      "ದು": 9602,
      "لو": 9603,
      "মান": 9604,
      "ੱਕ": 9605,
      "মে": 9606,
      "not": 9607,
      "തു": 9608,
      "सह": 9609,
      "వు": 9610,
      "ಸಾ": 9611,
      "ವು": 9612,
      "ஒரு": 9613,
      "க்கும்": 9614,
      "వే": 9615,
      "त्री": 9616,
      "শি": 9617,
      "డ్": 9618,
      "தே": 9619,
      "ാന": 9620,
      "ப்பு": 9621,
      "નિ": 9622,
      "स्ट": 9623,
      "ಿತ": 9624,
      "ud": 9625,
      "در": 9626,
      "मध्य": 9627,
      "por": 9628,
      "pr": 9629,
      "சு": 9630,
      "اری": 9631,
      "ంచి": 9632,
      "पी": 9633,
      "साठी": 9634,
      "जो": 9635,
      "have": 9636,
      "એક": 9637,
      "डा": 9638,
      "اف": 9639,
      "লো": 9640,
      "మి": 9641,
      "सरकार": 9642,
      "اع": 9643,
      "201": 9644,
      "ற்க": 9645,
      "ിക": 9646,
      "one": 9647,
      "नहीं": 9648,
      "બા": 9649,
      "सम्": 9650,
      "परि": 9651,
      "యు": 9652,
      "co": 9653,
      "ಾರೆ": 9654,
      "ions": 9655,
      "பி": 9656,
      "থে": 9657,
      "ತ್ರ": 9658,
      "ంగ": 9659,
      "પો": 9660,
      "ದೆ": 9661,
      "য়েছে": 9662,
      "तील": 9663,
      "ਇਹ": 9664,
      "જી": 9665,
      "నికి": 9666,
      "വർ": 9667,
      "ಮು": 9668,
      "शी": 9669,
      "ையில்": 9670,
      "రో": 9671,
      "بہ": 9672,
      "കു": 9673,
      "पूर्": 9674,
      "डि": 9675,
      "ല്ല": 9676,
      "સં": 9677,
      "बि": 9678,
      "age": 9679,
      "વામાં": 9680,
      "சா": 9681,
      "ure": 9682,
      "योग": 9683,
      "தொ": 9684,
      "ہم": 9685,
      "ദ്": 9686,
      "gr": 9687,
      "ਨ੍ਹਾਂ": 9688,
      "યો": 9689,
      "ஸ்": 9690,
      "তার": 9691,
      "বার": 9692,
      "ib": 9693,
      "సా": 9694,
      "जना": 9695,
      "ਵੱ": 9696,
      "گی": 9697,
      "سر": 9698,
      "der": 9699,
      "क्षा": 9700,
      "चार": 9701,
      "भार": 9702,
      "سل": 9703,
      "their": 9704,
      "धी": 9705,
      "डे": 9706,
      "ge": 9707,
      "తె": 9708,
      "ಗಳನ್ನು": 9709,
      "this": 9710,
      "ਦਰ": 9711,
      "बी": 9712,
      "दो": 9713,
      "از": 9714,
      "െന്ന": 9715,
      "ുള്ള": 9716,
      "வெ": 9717,
      "تھا": 9718,
      "ਲੀ": 9719,
      "कर्": 9720,
      "மே": 9721,
      "10": 9722,
      "டை": 9723,
      "ਟੀ": 9724,
      "ત્": 9725,
      "పె": 9726,
      "લ્": 9727,
      "పి": 9728,
      "क्त": 9729,
      "مع": 9730,
      "ਸੰ": 9731,
      "was": 9732,
      "ுக்கு": 9733,
      "క్ష": 9734,
      "यु": 9735,
      "ಿಂದ": 9736,
      "str": 9737,
      "ক্ত": 9738,
      "पो": 9739,
      "शे": 9740,
      "ਕਰਨ": 9741,
      "ത്ര": 9742,
      "एका": 9743,
      "త్ర": 9744,
      "نہ": 9745,
      "ಬೇ": 9746,
      "अनु": 9747,
      "ண்டு": 9748,
      "ದೇ": 9749,
      "ਸਮ": 9750,
      "त्यां": 9751,
      "ಮ್ಮ": 9752,
      "بن": 9753,
      "্ব": 9754,
      "ందు": 9755,
      "ಯಾ": 9756,
      "ind": 9757,
      "എന്ന": 9758,
      "ਆਪ": 9759,
      "ായ": 9760,
      "્યો": 9761,
      "ಕ್ಕೆ": 9762,
      "मध्ये": 9763,
      "णी": 9764,
      "મો": 9765,
      "چھ": 9766,
      "ਤਰ": 9767,
      "కే": 9768,
      "رہ": 9769,
      "साथ": 9770,
      "آپ": 9771,
      "പി": 9772,
      "iz": 9773,
      "ಂಬ": 9774,
      "ine": 9775,
      "ਪਰ": 9776,
      "गु": 9777,
      "റി": 9778,
      "ళ్": 9779,
      "దే": 9780,
      "च्": 9781,
      "ome": 9782,
      "কো": 9783,
      "న్నా": 9784,
      "્યું": 9785,
      "ip": 9786,
      "టీ": 9787,
      "قی": 9788,
      "ன்ற": 9789,
      "لے": 9790,
      "చె": 9791,
      "ಡಿ": 9792,
      "லா": 9793,
      "હી": 9794,
      "ائے": 9795,
      "दै": 9796,
      "ell": 9797,
      "सर्": 9798,
      "यह": 9799,
      "కూ": 9800,
      "मुख": 9801,
      "మ్": 9802,
      "man": 9803,
      "गी": 9804,
      "ਕੋ": 9805,
      "ਸਿੰ": 9806,
      "ळे": 9807,
      "ਸਰ": 9808,
      "ष्ट्र": 9809,
      "ach": 9810,
      "भि": 9811,
      "கூ": 9812,
      "ਲੇ": 9813,
      "டிய": 9814,
      "ವೆ": 9815,
      "انی": 9816,
      "me": 9817,
      "ಂಗ": 9818,
      "ಸಿ": 9819,
      "बै": 9820,
      "వార": 9821,
      "പ്പെ": 9822,
      "னர்": 9823,
      "கிற": 9824,
      "સે": 9825,
      "ਜਾਂ": 9826,
      "ਹੀਂ": 9827,
      "এই": 9828,
      "ated": 9829,
      "ವನ್ನು": 9830,
      "थि": 9831,
      "ون": 9832,
      "গে": 9833,
      "use": 9834,
      "णे": 9835,
      "able": 9836,
      "do": 9837,
      "کن": 9838,
      "জে": 9839,
      "गे": 9840,
      "യും": 9841,
      "gh": 9842,
      "দেশ": 9843,
      "मं": 9844,
      "बार": 9845,
      "کرنے": 9846,
      "مت": 9847,
      "فی": 9848,
      "فر": 9849,
      "ef": 9850,
      "क्रम": 9851,
      "ண்": 9852,
      "مر": 9853,
      "ಷ್ಟ": 9854,
      "end": 9855,
      "खे": 9856,
      "క్క": 9857,
      "डी": 9858,
      "भएको": 9859,
      "कारी": 9860,
      "সং": 9861,
      "ight": 9862,
      "గి": 9863,
      "న్నారు": 9864,
      "ഞ്ഞ": 9865,
      "port": 9866,
      "ழு": 9867,
      "किया": 9868,
      "ich": 9869,
      "ke": 9870,
      "మరి": 9871,
      "மாக": 9872,
      "گا": 9873,
      "യിൽ": 9874,
      "काम": 9875,
      "బా": 9876,
      "cre": 9877,
      "ಡೆ": 9878,
      "ਸਿੰਘ": 9879,
      "جی": 9880,
      "ટી": 9881,
      "ೊಳ": 9882,
      "ard": 9883,
      "ide": 9884,
      "রে": 9885,
      "സ്ഥ": 9886,
      "ভি": 9887,
      "ਪਾ": 9888,
      "తీ": 9889,
      "dis": 9890,
      "నీ": 9891,
      "ous": 9892,
      "ਸਕ": 9893,
      "ારે": 9894,
      "ਤਾਂ": 9895,
      "तु": 9896,
      "થે": 9897,
      "জা": 9898,
      "ైన": 9899,
      "તેમ": 9900,
      "बता": 9901,
      "av": 9902,
      "प्रा": 9903,
      "ಚ್": 9904,
      "ans": 9905,
      "पाल": 9906,
      "ણી": 9907,
      "पनि": 9908,
      "वर्ष": 9909,
      "বং": 9910,
      "ਗਾ": 9911,
      "टे": 9912,
      "ಟ್": 9913,
      "தை": 9914,
      "താ": 9915,
      "ਡੀ": 9916,
      "ത്തിൽ": 9917,
      "িক": 9918,
      "ਿਆਂ": 9919,
      "આવ": 9920,
      "ಾಯ": 9921,
      "ঙ্": 9922,
      "ತೆ": 9923,
      "ould": 9924,
      "સુ": 9925,
      "خو": 9926,
      "மற்ற": 9927,
      "बे": 9928,
      "करने": 9929,
      "മായി": 9930,
      "கி": 9931,
      "ುದು": 9932,
      "धान": 9933,
      "னி": 9934,
      "తా": 9935,
      "ष्": 9936,
      "اتھ": 9937,
      "રૂ": 9938,
      "ಪ್": 9939,
      "ਨਹੀਂ": 9940,
      "its": 9941,
      "खि": 9942,
      "ક્ષ": 9943,
      "এবং": 9944,
      "ব্য": 9945,
      "शन": 9946,
      "हरु": 9947,
      "ਤੁ": 9948,
      "പോ": 9949,
      "جس": 9950,
      "દે": 9951,
      "চা": 9952,
      "pre": 9953,
      "ரிய": 9954,
      "થા": 9955,
      "য়ার": 9956,
      "হয়": 9957,
      "್ಳ": 9958,
      "करण्या": 9959,
      "ಎಂದು": 9960,
      "మె": 9961,
      "طر": 9962,
      "ளி": 9963,
      "ப்பட்ட": 9964,
      "ડી": 9965,
      "पर्": 9966,
      "وی": 9967,
      "more": 9968,
      "লেন": 9969,
      "اق": 9970,
      "പാ": 9971,
      "ણા": 9972,
      "ear": 9973,
      "ਜੀ": 9974,
      "દા": 9975,
      "ough": 9976,
      "સાથે": 9977,
      "િયા": 9978,
      "ನು": 9979,
      "انے": 9980,
      "िय": 9981,
      "कृ": 9982,
      "্ৰ": 9983,
      "ప్ప": 9984,
      "સમ": 9985,
      "ವಾಗಿ": 9986,
      "ia": 9987,
      "োগ": 9988,
      "सक": 9989,
      "्रे": 9990,
      "ਭਾ": 9991,
      "they": 9992,
      "has": 9993,
      "ੈਂ": 9994,
      "వె": 9995,
      "fo": 9996,
      "দু": 9997,
      "രിക്ക": 9998,
      "ਲੋ": 9999,
      "ence": 10000,
      "form": 10001,
      "ಿದ್ದಾರೆ": 10002,
      "्यां": 10003,
      "छन्": 10004,
      "will": 10005,
      "सार": 10006,
      "ev": 10007,
      "মু": 10008,
      "ற்ப": 10009,
      "تر": 10010,
      "fer": 10011,
      "चि": 10012,
      "पे": 10013,
      "স্থ": 10014,
      "পার": 10015,
      "নের": 10016,
      "றை": 10017,
      "ਨਿ": 10018,
      "महा": 10019,
      "ਵਾਲ": 10020,
      "جن": 10021,
      "उत्": 10022,
      "ਦਿੱ": 10023,
      "್ಯಾ": 10024,
      "व्": 10025,
      "ండి": 10026,
      "હા": 10027,
      "நீ": 10028,
      "ਜੋ": 10029,
      "என": 10030,
      "جہ": 10031,
      "ડા": 10032,
      "த்தை": 10033,
      "ടി": 10034,
      "ज्": 10035,
      "مح": 10036,
      "ਇੱਕ": 10037,
      "থেকে": 10038,
      "வில்": 10039,
      "ਮੀ": 10040,
      "द्ध": 10041,
      "لئے": 10042,
      "ചെയ": 10043,
      "द्य": 10044,
      "up": 10045,
      "കോ": 10046,
      "ணி": 10047,
      "ound": 10048,
      "گیا": 10049,
      "திய": 10050,
      "ਉਨ੍ਹਾਂ": 10051,
      "तथा": 10052,
      "অন": 10053,
      "ಕ್ಕ": 10054,
      "समा": 10055,
      "ಹೆ": 10056,
      "comp": 10057,
      "ಸ್ಥ": 10058,
      "ધી": 10059,
      "शु": 10060,
      "സാ": 10061,
      "করা": 10062,
      "ਹੇ": 10063,
      "பொ": 10064,
      "go": 10065,
      "ল্": 10066,
      "कां": 10067,
      "پہ": 10068,
      "क्षे": 10069,
      "உள்ள": 10070,
      "लय": 10071,
      "li": 10072,
      "ول": 10073,
      "गरि": 10074,
      "ھر": 10075,
      "என்று": 10076,
      "ند": 10077,
      "मह": 10078,
      "യാ": 10079,
      "ations": 10080,
      "வும்": 10081,
      "which": 10082,
      "اح": 10083,
      "थी": 10084,
      "ठा": 10085,
      "ہوں": 10086,
      "ਮੁ": 10087,
      "tim": 10088,
      "পরি": 10089,
      "மான": 10090,
      "தெ": 10091,
      "ಲಿ": 10092,
      "কৰ": 10093,
      "పై": 10094,
      "cr": 10095,
      "આપ": 10096,
      "હિ": 10097,
      "ையும்": 10098,
      "ాల్": 10099,
      "ction": 10100,
      "ണ്ട്": 10101,
      "ब्": 10102,
      "اں": 10103,
      "ستان": 10104,
      "ಾನ": 10105,
      "દ્": 10106,
      "ச்": 10107,
      "द्र": 10108,
      "बर": 10109,
      "दर्": 10110,
      "দা": 10111,
      "ळा": 10112,
      "ಿಸಿ": 10113,
      "पि": 10114,
      "sy": 10115,
      "बाट": 10116,
      "عد": 10117,
      "ਆਪਣ": 10118,
      "पार": 10119,
      "ಹೊ": 10120,
      "لیے": 10121,
      "ਸਿ": 10122,
      "যে": 10123,
      "ચા": 10124,
      "জি": 10125,
      "ய்": 10126,
      "ত্র": 10127,
      "اپنے": 10128,
      "ખા": 10129,
      "നാ": 10130,
      "जार": 10131,
      "നട": 10132,
      "cess": 10133,
      "டுத்த": 10134,
      "স্ত": 10135,
      "other": 10136,
      "work": 10137,
      "হি": 10138,
      "टर": 10139,
      "ಬಿ": 10140,
      "धार": 10141,
      "ਸੇ": 10142,
      "ಾರ್": 10143,
      "மற்றும்": 10144,
      "म्ह": 10145,
      "ਵਰ": 10146,
      "രുന്നു": 10147,
      "બે": 10148,
      "તમા": 10149,
      "णार": 10150,
      "మరియు": 10151,
      "દિ": 10152,
      "গ্র": 10153,
      "ਗਿਆ": 10154,
      "ack": 10155,
      "ੀਆਂ": 10156,
      "लगा": 10157,
      "ance": 10158,
      "ಲೆ": 10159,
      "টে": 10160,
      "મુ": 10161,
      "ೊಂಡ": 10162,
      "ಾದ": 10163,
      "तक": 10164,
      "ater": 10165,
      "ட்ச": 10166,
      "ast": 10167,
      "లను": 10168,
      "also": 10169,
      "સિ": 10170,
      "ٹر": 10171,
      "ish": 10172,
      "ass": 10173,
      "af": 10174,
      "દી": 10175,
      "ಾಗಿದೆ": 10176,
      "ദേ": 10177,
      "गो": 10178,
      "پاک": 10179,
      "नाही": 10180,
      "घे": 10181,
      "ign": 10182,
      "চ্": 10183,
      "og": 10184,
      "জান": 10185,
      "গু": 10186,
      "تم": 10187,
      "ਰੇ": 10188,
      "کہا": 10189,
      "ുന്നത്": 10190,
      "ong": 10191,
      "आहेत": 10192,
      "ep": 10193,
      "ग्": 10194,
      "பே": 10195,
      "cont": 10196,
      "ధి": 10197,
      "ਮਿ": 10198,
      "ci": 10199,
      "যা": 10200,
      "ர்த": 10201,
      "களை": 10202,
      "फि": 10203,
      "ലെ": 10204,
      "രം": 10205,
      "ંત": 10206,
      "ன்ன": 10207,
      "ਪੰ": 10208,
      "പു": 10209,
      "శా": 10210,
      "جب": 10211,
      "ধ্য": 10212,
      "வரு": 10213,
      "ಹಿ": 10214,
      "व्यव": 10215,
      "नं": 10216,
      "ire": 10217,
      "మే": 10218,
      "শা": 10219,
      "इन": 10220,
      "స్థ": 10221,
      "ಚ್ಚ": 10222,
      "ساتھ": 10223,
      "Wh": 10224,
      "चित": 10225,
      "രണ": 10226,
      "સ્ટ": 10227,
      "This": 10228,
      "ake": 10229,
      "کار": 10230,
      "ary": 10231,
      "ہر": 10232,
      "ਮੰ": 10233,
      "15": 10234,
      "ਕੀਤਾ": 10235,
      "बना": 10236,
      "राष्ट्र": 10237,
      "லி": 10238,
      "गया": 10239,
      "વર્": 10240,
      "کم": 10241,
      "मार": 10242,
      "ਕਾਂ": 10243,
      "ങ്ക": 10244,
      "వచ్": 10245,
      "வேண்ட": 10246,
      "چی": 10247,
      "ણે": 10248,
      "त्रा": 10249,
      "ಬೆ": 10250,
      "વધ": 10251,
      "നു": 10252,
      "క్ర": 10253,
      "வழ": 10254,
      "ന്ത്": 10255,
      "मै": 10256,
      "સી": 10257,
      "મી": 10258,
      "కార": 10259,
      "ਰਿ": 10260,
      "बढ": 10261,
      "હતી": 10262,
      "سک": 10263,
      "ীয়": 10264,
      "ரை": 10265,
      "సీ": 10266,
      "न्य": 10267,
      "रुप": 10268,
      "ప్పు": 10269,
      "డం": 10270,
      "తే": 10271,
      "மூ": 10272,
      "সম্": 10273,
      "શા": 10274,
      "ਨਾਂ": 10275,
      "comm": 10276,
      "شن": 10277,
      "ust": 10278,
      "थे": 10279,
      "नो": 10280,
      "വേ": 10281,
      "अधि": 10282,
      "ਸ਼ਾ": 10283,
      "vel": 10284,
      "ಿಸಿದ": 10285,
      "मुळे": 10286,
      "தற்க": 10287,
      "own": 10288,
      "చు": 10289,
      "बु": 10290,
      "श्र": 10291,
      "મિ": 10292,
      "ற்று": 10293,
      "ೇಳ": 10294,
      "শে": 10295,
      "প্রতি": 10296,
      "என்ற": 10297,
      "ਟਰ": 10298,
      "It": 10299,
      "ગા": 10300,
      "ಜಿ": 10301,
      "ರೂ": 10302,
      "ild": 10303,
      "टि": 10304,
      "ents": 10305,
      "गरेको": 10306,
      "ਦੀਆਂ": 10307,
      "सू": 10308,
      "ಡ್": 10309,
      "ਉਸ": 10310,
      "ਜੇ": 10311,
      "12": 10312,
      "లకు": 10313,
      "उन्": 10314,
      "بار": 10315,
      "ੱਖ": 10316,
      "ಮೂ": 10317,
      "ില്ല": 10318,
      "ার্": 10319,
      "घा": 10320,
      "পি": 10321,
      "ক্র": 10322,
      "ಕರ": 10323,
      "سو": 10324,
      "कम": 10325,
      "مد": 10326,
      "செய்": 10327,
      "સર": 10328,
      "ਉਹ": 10329,
      "മായ": 10330,
      "बाद": 10331,
      "பிர": 10332,
      "ally": 10333,
      "ர்ப": 10334,
      "स्थित": 10335,
      "ಕ್ರ": 10336,
      "கோ": 10337,
      "કરવા": 10338,
      "വര": 10339,
      "تک": 10340,
      "बो": 10341,
      "جات": 10342,
      "দ্ধ": 10343,
      "க்கிற": 10344,
      "र्थ": 10345,
      "ਇਕ": 10346,
      "دیا": 10347,
      "ਫ਼": 10348,
      "রি": 10349,
      "యం": 10350,
      "ਦਿ": 10351,
      "मन्": 10352,
      "हर": 10353,
      "ডি": 10354,
      "നെ": 10355,
      "ition": 10356,
      "ওয়া": 10357,
      "ਹੁੰ": 10358,
      "माण": 10359,
      "সু": 10360,
      "ഒരു": 10361,
      "చేయ": 10362,
      "ंक": 10363,
      "ப்பட": 10364,
      "ren": 10365,
      "ின்ற": 10366,
      "निक": 10367,
      "వర": 10368,
      "18": 10369,
      "यांनी": 10370,
      "ಜನ": 10371,
      "ca": 10372,
      "്യാ": 10373,
      "sp": 10374,
      "اص": 10375,
      "খা": 10376,
      "வர்": 10377,
      "കേ": 10378,
      "அதி": 10379,
      "નથી": 10380,
      "મળ": 10381,
      "न्न": 10382,
      "ध्यक्ष": 10383,
      "पास": 10384,
      "రె": 10385,
      "ോഗ": 10386,
      "ಶ್": 10387,
      "ியா": 10388,
      "നേ": 10389,
      "अव": 10390,
      "कहा": 10391,
      "ವರ": 10392,
      "ત્ય": 10393,
      "ఒక": 10394,
      "ely": 10395,
      "ew": 10396,
      "ਰੋ": 10397,
      "ما": 10398,
      "அர": 10399,
      "low": 10400,
      "pres": 10401,
      "ಿಸುವ": 10402,
      "ಸು": 10403,
      "ज्ञ": 10404,
      "स्व": 10405,
      "செய்த": 10406,
      "लागि": 10407,
      "মো": 10408,
      "but": 10409,
      "br": 10410,
      "مان": 10411,
      "તું": 10412,
      "bo": 10413,
      "ધા": 10414,
      "ace": 10415,
      "नेपाल": 10416,
      "وز": 10417,
      "جھ": 10418,
      "ಪಾ": 10419,
      "کام": 10420,
      "व्या": 10421,
      "டன்": 10422,
      "सद": 10423,
      "ok": 10424,
      "ice": 10425,
      "ڈی": 10426,
      "പറ": 10427,
      "alth": 10428,
      "ਸੀਂ": 10429,
      "லும்": 10430,
      "ன்று": 10431,
      "ंद्र": 10432,
      "వీ": 10433,
      "way": 10434,
      "வீ": 10435,
      "نگ": 10436,
      "్రా": 10437,
      "गर्ने": 10438,
      "ಚಿ": 10439,
      "cial": 10440,
      "জন্য": 10441,
      "ीय": 10442,
      "ల్ల": 10443,
      "ਉਣ": 10444,
      "ळी": 10445,
      "ப்பி": 10446,
      "enc": 10447,
      "ਕੁ": 10448,
      "ens": 10449,
      "కూడా": 10450,
      "بھ": 10451,
      "आज": 10452,
      "ளை": 10453,
      "ರಾಜ": 10454,
      "दिन": 10455,
      "্ম": 10456,
      "భా": 10457,
      "ang": 10458,
      "െന്ന്": 10459,
      "ীর": 10460,
      "ంతో": 10461,
      "ਕੀਤੀ": 10462,
      "ਵਾਰ": 10463,
      "நில": 10464,
      "ਚਾ": 10465,
      "महि": 10466,
      "ہوئے": 10467,
      "കള": 10468,
      "بل": 10469,
      "भू": 10470,
      "लेल्या": 10471,
      "নার": 10472,
      "ష్ట": 10473,
      "బ్": 10474,
      "બી": 10475,
      "them": 10476,
      "আর": 10477,
      "قت": 10478,
      "ਕਿਹਾ": 10479,
      "चु": 10480,
      "spe": 10481,
      "ೋಗ": 10482,
      "કી": 10483,
      "னால்": 10484,
      "ಲಾ": 10485,
      "بات": 10486,
      "30": 10487,
      "स्ता": 10488,
      "ೊಳ್ಳ": 10489,
      "रहेको": 10490,
      "ber": 10491,
      "bl": 10492,
      "ase": 10493,
      "పరి": 10494,
      "hel": 10495,
      "ಬ್": 10496,
      "ors": 10497,
      "होते": 10498,
      "લિ": 10499,
      "تھے": 10500,
      "फा": 10501,
      "ట్ట": 10502,
      "द्या": 10503,
      "ಧ್ಯ": 10504,
      "ತು": 10505,
      "వం": 10506,
      "21": 10507,
      "ਸਾਰ": 10508,
      "ail": 10509,
      "जिल्": 10510,
      "पह": 10511,
      "दू": 10512,
      "अपने": 10513,
      "धिक": 10514,
      "நட": 10515,
      "ುತ್ತದೆ": 10516,
      "مال": 10517,
      "હોય": 10518,
      "नगर": 10519,
      "उस": 10520,
      "पुर": 10521,
      "വും": 10522,
      "کل": 10523,
      "pos": 10524,
      "छि": 10525,
      "ever": 10526,
      "ಟಿ": 10527,
      "ুল": 10528,
      "ছিল": 10529,
      "પૂ": 10530,
      "ছেন": 10531,
      "اللہ": 10532,
      "fect": 10533,
      "ಹಾಗ": 10534,
      "മി": 10535,
      "ంటే": 10536,
      "गर्न": 10537,
      "लन": 10538,
      "کرتے": 10539,
      "ਬੰ": 10540,
      "উপ": 10541,
      "ਗੀ": 10542,
      "ਵਾਂ": 10543,
      "भने": 10544,
      "ਡੇ": 10545,
      "ര്യ": 10546,
      "ضر": 10547,
      "स्य": 10548,
      "गत": 10549,
      "என்ப": 10550,
      "ನೀಡ": 10551,
      "மீ": 10552,
      "ph": 10553,
      "बं": 10554,
      "inter": 10555,
      "والے": 10556,
      "ച്ച്": 10557,
      "200": 10558,
      "کسی": 10559,
      "वन": 10560,
      "ty": 10561,
      "جائے": 10562,
      "ટા": 10563,
      "vi": 10564,
      "लं": 10565,
      "தொட": 10566,
      "ரும்": 10567,
      "گے": 10568,
      "കൂ": 10569,
      "over": 10570,
      "any": 10571,
      "ழ்": 10572,
      "జా": 10573,
      "ంగ్": 10574,
      "ser": 10575,
      "ਗੇ": 10576,
      "ਮੇ": 10577,
      "চে": 10578,
      "পে": 10579,
      "مق": 10580,
      "கே": 10581,
      "about": 10582,
      "మైన": 10583,
      "भन्": 10584,
      "வது": 10585,
      "ಹಾ": 10586,
      "जु": 10587,
      "दर": 10588,
      "ame": 10589,
      "ite": 10590,
      "تح": 10591,
      "జీ": 10592,
      "नै": 10593,
      "دا": 10594,
      "ਇਆ": 10595,
      "ವೇ": 10596,
      "தாக": 10597,
      "ാൻ": 10598,
      "२०": 10599,
      "بڑ": 10600,
      "ത്തെ": 10601,
      "prov": 10602,
      "دن": 10603,
      "খন": 10604,
      "ുകള": 10605,
      "some": 10606,
      "no": 10607,
      "ించి": 10608,
      "int": 10609,
      "జి": 10610,
      "વો": 10611,
      "છી": 10612,
      "ರಿಗೆ": 10613,
      "గ్": 10614,
      "ದಿ": 10615,
      "னா": 10616,
      "ಸಮ": 10617,
      "part": 10618,
      "হয়েছে": 10619,
      "असे": 10620,
      "ಪು": 10621,
      "ಇದ": 10622,
      "ர்த்த": 10623,
      "dr": 10624,
      "بعد": 10625,
      "may": 10626,
      "پاکستان": 10627,
      "निय": 10628,
      "સો": 10629,
      "نو": 10630,
      "રહે": 10631,
      "ੂਰ": 10632,
      "रूप": 10633,
      "ile": 10634,
      "પી": 10635,
      "ck": 10636,
      "کوئی": 10637,
      "આવે": 10638,
      "త్త": 10639,
      "பய": 10640,
      "ட்": 10641,
      "50": 10642,
      "యో": 10643,
      "करा": 10644,
      "त्व": 10645,
      "నిర్": 10646,
      "्ड": 10647,
      "பல": 10648,
      "ਸਟ": 10649,
      "ವರ್": 10650,
      "யா": 10651,
      "যোগ": 10652,
      "ಬಹ": 10653,
      "ಗಳಲ್ಲಿ": 10654,
      "मत": 10655,
      "मार्": 10656,
      "رہے": 10657,
      "യു": 10658,
      "با": 10659,
      "தன்": 10660,
      "રિ": 10661,
      "जान": 10662,
      "ಾರಿ": 10663,
      "నం": 10664,
      "ષ્": 10665,
      "تھی": 10666,
      "వ్య": 10667,
      "دار": 10668,
      "ಂತೆ": 10669,
      "ple": 10670,
      "हित": 10671,
      "cur": 10672,
      "col": 10673,
      "ുകൾ": 10674,
      "રહ": 10675,
      "હતા": 10676,
      "ಮೇ": 10677,
      "গা": 10678,
      "An": 10679,
      "தமி": 10680,
      "شی": 10681,
      "help": 10682,
      "চি": 10683,
      "তিনি": 10684,
      "ਬੀ": 10685,
      "கிறது": 10686,
      "करे": 10687,
      "तात": 10688,
      "योजना": 10689,
      "கை": 10690,
      "దీ": 10691,
      "ory": 10692,
      "न्या": 10693,
      "ments": 10694,
      "റ്റ്": 10695,
      "சே": 10696,
      "ating": 10697,
      "स्वा": 10698,
      "స్ట": 10699,
      "బు": 10700,
      "കൊ": 10701,
      "மைய": 10702,
      "وری": 10703,
      "ಗ್": 10704,
      "વું": 10705,
      "ਬਰ": 10706,
      "ലി": 10707,
      "ਧਾ": 10708,
      "पूर्ण": 10709,
      "ಆದ": 10710,
      "تہ": 10711,
      "டம்": 10712,
      "ific": 10713,
      "వర్": 10714,
      "ട്": 10715,
      "Ch": 10716,
      "क्षेत्र": 10717,
      "ਪੰਜਾ": 10718,
      "ತಾ": 10719,
      "शक": 10720,
      "લોકો": 10721,
      "ৰা": 10722,
      "लोग": 10723,
      "दार": 10724,
      "हजार": 10725,
      "ओं": 10726,
      "छा": 10727,
      "क्ति": 10728,
      "क्षण": 10729,
      "time": 10730,
      "ంటు": 10731,
      "امی": 10732,
      "ತಿಯ": 10733,
      "ગુ": 10734,
      "வேண்டும்": 10735,
      "cor": 10736,
      "ೆಯಲ್ಲಿ": 10737,
      "हम": 10738,
      "نظ": 10739,
      "ener": 10740,
      "શ્": 10741,
      "11": 10742,
      "ాలి": 10743,
      "धन": 10744,
      "ਲਾਂ": 10745,
      "পু": 10746,
      "சொ": 10747,
      "ult": 10748,
      "stud": 10749,
      "किन": 10750,
      "చేసి": 10751,
      "ದ್": 10752,
      "زی": 10753,
      "செய்ய": 10754,
      "జు": 10755,
      "who": 10756,
      "ತ್ಯ": 10757,
      "कारण": 10758,
      "ഭാ": 10759,
      "ছা": 10760,
      "اپنی": 10761,
      "मू": 10762,
      "ਸ਼ਨ": 10763,
      "ಗು": 10764,
      "একটি": 10765,
      "कै": 10766,
      "ಶಿ": 10767,
      "ಕೊ": 10768,
      "നം": 10769,
      "పీ": 10770,
      "દર": 10771,
      "جان": 10772,
      "ੱਸ": 10773,
      "ક્ર": 10774,
      "હતો": 10775,
      "വീ": 10776,
      "చూ": 10777,
      "समय": 10778,
      "ড়া": 10779,
      "यर": 10780,
      "new": 10781,
      "वै": 10782,
      "વાર": 10783,
      "আম": 10784,
      "এর": 10785,
      "ನಿರ್": 10786,
      "શન": 10787,
      "ਕੰ": 10788,
      "سب": 10789,
      "டைய": 10790,
      "ரம்": 10791,
      "ദ്ധ": 10792,
      "ual": 10793,
      "ਜਾਣ": 10794,
      "भाव": 10795,
      "ন্দ": 10796,
      "వై": 10797,
      "ത്ത്": 10798,
      "لیکن": 10799,
      "തെ": 10800,
      "യുടെ": 10801,
      "சிய": 10802,
      "मंत्री": 10803,
      "লী": 10804,
      "ਸੁ": 10805,
      "ள்ளது": 10806,
      "विष": 10807,
      "ਅੰ": 10808,
      "ities": 10809,
      "केले": 10810,
      "নির্": 10811,
      "सर्व": 10812,
      "യ്": 10813,
      "ਆਪਣੇ": 10814,
      "శ్": 10815,
      "த்தி": 10816,
      "घट": 10817,
      "പ്പോ": 10818,
      "bet": 10819,
      "ಗ್ರ": 10820,
      "جا": 10821,
      "માન": 10822,
      "হবে": 10823,
      "ਤੁਹਾ": 10824,
      "ਡਾ": 10825,
      "ਹਰ": 10826,
      "بہت": 10827,
      "مہ": 10828,
      "भे": 10829,
      "dif": 10830,
      "भाग": 10831,
      "now": 10832,
      "ঞ্": 10833,
      "இது": 10834,
      "ద్ద": 10835,
      "aw": 10836,
      "رکھ": 10837,
      "খে": 10838,
      "मात्र": 10839,
      "ക്കു": 10840,
      "दल": 10841,
      "these": 10842,
      "ma": 10843,
      "ਖੇ": 10844,
      "પુ": 10845,
      "म्हण": 10846,
      "ಿಕೆ": 10847,
      "ડે": 10848,
      "used": 10849,
      "्रा": 10850,
      "ਗੁਰ": 10851,
      "होता": 10852,
      "ന്ദ": 10853,
      "विश्": 10854,
      "ನೇ": 10855,
      "પ્": 10856,
      "श्य": 10857,
      "বর": 10858,
      "করতে": 10859,
      "னு": 10860,
      "മാണ്": 10861,
      "ದೇಶ": 10862,
      "ful": 10863,
      "ಿರುವ": 10864,
      "ਦੁ": 10865,
      "करण": 10866,
      "लिका": 10867,
      "സർ": 10868,
      "di": 10869,
      "ਪੀ": 10870,
      "ல்லா": 10871,
      "into": 10872,
      "શિ": 10873,
      "لوگ": 10874,
      "पत्र": 10875,
      "cent": 10876,
      "fr": 10877,
      "000": 10878,
      "குறி": 10879,
      "ople": 10880,
      "مط": 10881,
      "పే": 10882,
      "മേ": 10883,
      "ગ્ર": 10884,
      "െന്നും": 10885,
      "reat": 10886,
      "મને": 10887,
      "एस": 10888,
      "नों": 10889,
      "നൽ": 10890,
      "ষ্ট": 10891,
      "विका": 10892,
      "યે": 10893,
      "الی": 10894,
      "ారి": 10895,
      "اگر": 10896,
      "ਜਿਸ": 10897,
      "ங்கு": 10898,
      "ண்ண": 10899,
      "how": 10900,
      "முத": 10901,
      "ಣೆ": 10902,
      "न्द्र": 10903,
      "ಿದ್ದು": 10904,
      "లీ": 10905,
      "்கு": 10906,
      "when": 10907,
      "need": 10908,
      "্যান": 10909,
      "stem": 10910,
      "क्रि": 10911,
      "प्रदेश": 10912,
      "తన": 10913,
      "अध्यक्ष": 10914,
      "olog": 10915,
      "કોઈ": 10916,
      "पछि": 10917,
      "भारत": 10918,
      "ings": 10919,
      "ates": 10920,
      "get": 10921,
      "కీ": 10922,
      "ટ્ર": 10923,
      "हुने": 10924,
      "ಪಿ": 10925,
      "such": 10926,
      "दिया": 10927,
      "কোন": 10928,
      "रोना": 10929,
      "health": 10930,
      "दान": 10931,
      "اسی": 10932,
      "આવી": 10933,
      "ਉਂ": 10934,
      "incl": 10935,
      "યુ": 10936,
      "हरू": 10937,
      "ட்டி": 10938,
      "ञ्": 10939,
      "ন্ন": 10940,
      "سم": 10941,
      "ಸೇ": 10942,
      "شر": 10943,
      "14": 10944,
      "ട്ടു": 10945,
      "ഡ്": 10946,
      "fl": 10947,
      "హా": 10948,
      "than": 10949,
      "సే": 10950,
      "यस": 10951,
      "તમે": 10952,
      "ப்பட்டு": 10953,
      "राज्य": 10954,
      "यों": 10955,
      "जब": 10956,
      "আপ": 10957,
      "कोरोना": 10958,
      "day": 10959,
      "were": 10960,
      "ારી": 10961,
      "ડિ": 10962,
      "പരി": 10963,
      "ਲੋਂ": 10964,
      "మొ": 10965,
      "প্ৰ": 10966,
      "most": 10967,
      "row": 10968,
      "आव": 10969,
      "પે": 10970,
      "ான்": 10971,
      "St": 10972,
      "അവ": 10973,
      "lect": 10974,
      "भर": 10975,
      "ദേശ": 10976,
      "સ્ત": 10977,
      "ষ্ঠ": 10978,
      "ਪਹਿ": 10979,
      "ree": 10980,
      "उँ": 10981,
      "তো": 10982,
      "स्प": 10983,
      "मुख्य": 10984,
      "ಹೇಳ": 10985,
      "ക്കി": 10986,
      "सन": 10987,
      "ms": 10988,
      "கொண்ட": 10989,
      "ਸਿੱ": 10990,
      "ಡು": 10991,
      "under": 10992,
      "সব": 10993,
      "ಹೆಚ್ಚ": 10994,
      "છો": 10995,
      "सभा": 10996,
      "తం": 10997,
      "ரண": 10998,
      "ಶಾ": 10999,
      "ಅವರು": 11000,
      "రీ": 11001,
      "्रो": 11002,
      "ज्ञा": 11003,
      "ట్టి": 11004,
      "സമ": 11005,
      "தில்": 11006,
      "மக்க": 11007,
      "ന്ത": 11008,
      "ण्यात": 11009,
      "ਤਰੀ": 11010,
      "মন": 11011,
      "நே": 11012,
      "ग्रा": 11013,
      "ੱਲ": 11014,
      "બં": 11015,
      "صو": 11016,
      "సుకు": 11017,
      "ട്ടി": 11018,
      "ङ्": 11019,
      "अधिक": 11020,
      "lear": 11021,
      "ning": 11022,
      "ಹಾಗೂ": 11023,
      "med": 11024,
      "டுத்து": 11025,
      "min": 11026,
      "ഴി": 11027,
      "را": 11028,
      "ವಾಗ": 11029,
      "సమ": 11030,
      "অনু": 11031,
      "लु": 11032,
      "خت": 11033,
      "હતું": 11034,
      "ਸਰਕਾਰ": 11035,
      "ധി": 11036,
      "ध्या": 11037,
      "ಬಳ": 11038,
      "मित": 11039,
      "தலை": 11040,
      "সহ": 11041,
      "अभि": 11042,
      "हों": 11043,
      "ਗਰ": 11044,
      "വെ": 11045,
      "ंना": 11046,
      "ارے": 11047,
      "કિ": 11048,
      "రే": 11049,
      "देखि": 11050,
      "વ્ય": 11051,
      "ಅವರ": 11052,
      "निर्माण": 11053,
      "ఆర్": 11054,
      "केली": 11055,
      "ಪಡ": 11056,
      "des": 11057,
      "ਲਿ": 11058,
      "ধান": 11059,
      "মধ্য": 11060,
      "people": 11061,
      "ਰਹੇ": 11062,
      "काय": 11063,
      "వ్": 11064,
      "കൾ": 11065,
      "সর": 11066,
      "ம்ப": 11067,
      "टो": 11068,
      "حکو": 11069,
      "arch": 11070,
      "्टी": 11071,
      "क्या": 11072,
      "पै": 11073,
      "અન": 11074,
      "మార్": 11075,
      "होती": 11076,
      "लाख": 11077,
      "தான்": 11078,
      "ਾਰੀ": 11079,
      "రూ": 11080,
      "ari": 11081,
      "produ": 11082,
      "ob": 11083,
      "যু": 11084,
      "শ্": 11085,
      "pt": 11086,
      "ਦੋ": 11087,
      "કરે": 11088,
      "कं": 11089,
      "बन्": 11090,
      "22": 11091,
      "thr": 11092,
      "16": 11093,
      "शो": 11094,
      "શો": 11095,
      "మో": 11096,
      "खु": 11097,
      "ext": 11098,
      "জার": 11099,
      "ట్టు": 11100,
      "उने": 11101,
      "ವ್ಯ": 11102,
      "ாள": 11103,
      "రం": 11104,
      "ٹھ": 11105,
      "అని": 11106,
      "ശ്": 11107,
      "लग": 11108,
      "ಕೋ": 11109,
      "அறி": 11110,
      "ন্ত্র": 11111,
      "హి": 11112,
      "ক্তি": 11113,
      "द्वार": 11114,
      "ंच": 11115,
      "रहा": 11116,
      "ਦੇਸ਼": 11117,
      "سن": 11118,
      "পুর": 11119,
      "ఉన్న": 11120,
      "तीय": 11121,
      "high": 11122,
      "طور": 11123,
      "year": 11124,
      "دور": 11125,
      "േഷ": 11126,
      "ਅੱ": 11127,
      "సె": 11128,
      "লের": 11129,
      "ప్రా": 11130,
      "ਸਨ": 11131,
      "ুন": 11132,
      "पर्य": 11133,
      "ట్లు": 11134,
      "ચે": 11135,
      "அமை": 11136,
      "ల్లో": 11137,
      "like": 11138,
      "സ്റ്റ": 11139,
      "జ్": 11140,
      "ాలను": 11141,
      "ન્ટ": 11142,
      "ces": 11143,
      "ility": 11144,
      "ৃত": 11145,
      "25": 11146,
      "صر": 11147,
      "ंब": 11148,
      "अर्": 11149,
      "वह": 11150,
      "ണം": 11151,
      "ાર્": 11152,
      "reg": 11153,
      "ress": 11154,
      "্ড": 11155,
      "ధా": 11156,
      "કરવામાં": 11157,
      "कार्यक्रम": 11158,
      "गरी": 11159,
      "ಲೇ": 11160,
      "கட": 11161,
      "్రి": 11162,
      "रह": 11163,
      "گئی": 11164,
      "বাং": 11165,
      "த்தின்": 11166,
      "यी": 11167,
      "দিন": 11168,
      "लेकिन": 11169,
      "ഡി": 11170,
      "देख": 11171,
      "जिस": 11172,
      "বল": 11173,
      "करते": 11174,
      "வ்": 11175,
      "திரு": 11176,
      "ರಿಸ": 11177,
      "दन": 11178,
      "ദി": 11179,
      "డానికి": 11180,
      "മ്മ": 11181,
      "system": 11182,
      "అయి": 11183,
      "పూ": 11184,
      "ਬਿ": 11185,
      "थियो": 11186,
      "নিয়ে": 11187,
      "నె": 11188,
      "ലാ": 11189,
      "عو": 11190,
      "ৰু": 11191,
      "17": 11192,
      "వారి": 11193,
      "ਣੀ": 11194,
      "طرح": 11195,
      "cho": 11196,
      "قو": 11197,
      "je": 11198,
      "زیا": 11199,
      "قر": 11200,
      "அந்த": 11201,
      "ையை": 11202,
      "stand": 11203,
      "રાજ": 11204,
      "সময়": 11205,
      "ಮುಖ": 11206,
      "க்கா": 11207,
      "नंतर": 11208,
      "ബി": 11209,
      "बहु": 11210,
      "બો": 11211,
      "ਅਰ": 11212,
      "ਸਥ": 11213,
      "ਬਾਰ": 11214,
      "حکومت": 11215,
      "करण्यात": 11216,
      "फे": 11217,
      "तिक": 11218,
      "ंचा": 11219,
      "ਗਈ": 11220,
      "ગે": 11221,
      "ंगे": 11222,
      "இருந்த": 11223,
      "ue": 11224,
      "rel": 11225,
      "प्त": 11226,
      "തുട": 11227,
      "چاہ": 11228,
      "ద్య": 11229,
      "യാണ്": 11230,
      "ంటి": 11231,
      "ular": 11232,
      "ਥੇ": 11233,
      "कुछ": 11234,
      "ગી": 11235,
      "ઉપ": 11236,
      "ರಿಂದ": 11237,
      "વર્ષ": 11238,
      "ਪੰਜਾਬ": 11239,
      "ড়ি": 11240,
      "త్య": 11241,
      "ऱ्या": 11242,
      "ंनी": 11243,
      "ark": 11244,
      "ख्या": 11245,
      "হয়ে": 11246,
      "13": 11247,
      "ೆಯನ್ನು": 11248,
      "ਲੈ": 11249,
      "ting": 11250,
      "velop": 11251,
      "ہونے": 11252,
      "ല്ലാ": 11253,
      "ورت": 11254,
      "cer": 11255,
      "்கள்": 11256,
      "െടു": 11257,
      "ಪ್ಪ": 11258,
      "फ्": 11259,
      "ys": 11260,
      "മ്പ": 11261,
      "ಗಳಿಗೆ": 11262,
      "ಮನ": 11263,
      "సిని": 11264,
      "हुए": 11265,
      "been": 11266,
      "tw": 11267,
      "स्थाप": 11268,
      "there": 11269,
      "ਵੇਂ": 11270,
      "ംഗ": 11271,
      "પોતા": 11272,
      "sur": 11273,
      "ಕಾರ್ಯ": 11274,
      "ਬਹੁ": 11275,
      "ಬೇಕು": 11276,
      "ળા": 11277,
      "develop": 11278,
      "ನಡೆ": 11279,
      "ಮಿ": 11280,
      "ਪੁ": 11281,
      "ട്ട്": 11282,
      "विकास": 11283,
      "ற்றி": 11284,
      "फो": 11285,
      "vers": 11286,
      "્યાં": 11287,
      "मिल": 11288,
      "ਧੀ": 11289,
      "ത്തിന്റെ": 11290,
      "ss": 11291,
      "বাংলা": 11292,
      "ठे": 11293,
      "ಕೆಲ": 11294,
      "ಕಿ": 11295,
      "بے": 11296,
      "গত": 11297,
      "ರೀ": 11298,
      "वं": 11299,
      "దేశ": 11300,
      "বলে": 11301,
      "বলেন": 11302,
      "్రీ": 11303,
      "कार्या": 11304,
      "സ്ഥാന": 11305,
      "ানে": 11306,
      "ਅਨ": 11307,
      "add": 11308,
      "શકે": 11309,
      "سا": 11310,
      "ವಾದ": 11311,
      "ten": 11312,
      "অব": 11313,
      "পারে": 11314,
      "his": 11315,
      "ాయి": 11316,
      "fic": 11317,
      "پڑ": 11318,
      "தீ": 11319,
      "ரோ": 11320,
      "ೊಂದ": 11321,
      "سال": 11322,
      "इसके": 11323,
      "പ്രതി": 11324,
      "ங்களை": 11325,
      "ান্ত": 11326,
      "cause": 11327,
      "ੋਗ": 11328,
      "ೀಯ": 11329,
      "തീ": 11330,
      "श्यक": 11331,
      "രിച്ച": 11332,
      "ics": 11333,
      "ath": 11334,
      "್ಣ": 11335,
      "ர்க்க": 11336,
      "ব্যব": 11337,
      "ੌਰ": 11338,
      "लोक": 11339,
      "ప్పుడు": 11340,
      "പേ": 11341,
      "पालिका": 11342,
      "شہ": 11343,
      "کچھ": 11344,
      "काही": 11345,
      "ম্": 11346,
      "ড়ে": 11347,
      "നിർ": 11348,
      "అను": 11349,
      "यांच्या": 11350,
      "असल्या": 11351,
      "ੋਰ": 11352,
      "வாக": 11353,
      "mon": 11354,
      "તાં": 11355,
      "وقت": 11356,
      "ರಿಯ": 11357,
      "24": 11358,
      "ভাবে": 11359,
      "ధ్య": 11360,
      "বো": 11361,
      "علی": 11362,
      "కె": 11363,
      "مسل": 11364,
      "ہوا": 11365,
      "ബാ": 11366,
      "غیر": 11367,
      "खो": 11368,
      "জ্": 11369,
      "ील": 11370,
      "عل": 11371,
      "ਖ਼": 11372,
      "ക്കുന്ന": 11373,
      "زیادہ": 11374,
      "ਖਾ": 11375,
      "ത്തില": 11376,
      "मन्त्री": 11377,
      "మూ": 11378,
      "യില": 11379,
      "राम": 11380,
      "মধ্যে": 11381,
      "ப்போ": 11382,
      "ण्ड": 11383,
      "્યુ": 11384,
      "ಸರ್": 11385,
      "است": 11386,
      "િત": 11387,
      "आर": 11388,
      "டும்": 11389,
      "ick": 11390,
      "தெரி": 11391,
      "ார்கள்": 11392,
      "एम": 11393,
      "through": 11394,
      "انہوں": 11395,
      "گئے": 11396,
      "ிருந்த": 11397,
      "پور": 11398,
      "अब": 11399,
      "اسل": 11400,
      "tain": 11401,
      "രാജ": 11402,
      "అవ": 11403,
      "்கள": 11404,
      "നൽക": 11405,
      "ദ്യ": 11406,
[...]
